{
  "version": "1.0",
  "truncation": null,
  "padding": null,
  "added_tokens": [
    {
      "id": 0,
      "content": "<eos_de>",
      "single_word": false,
      "lstrip": false,
      "rstrip": false,
      "normalized": false,
      "special": true
    },
    {
      "id": 1,
      "content": "<eos_en>",
      "single_word": false,
      "lstrip": false,
      "rstrip": false,
      "normalized": false,
      "special": true
    },
    {
      "id": 2,
      "content": "<pad>",
      "single_word": false,
      "lstrip": false,
      "rstrip": false,
      "normalized": false,
      "special": true
    }
  ],
  "normalizer": null,
  "pre_tokenizer": {
    "type": "ByteLevel",
    "add_prefix_space": false,
    "trim_offsets": true,
    "use_regex": true
  },
  "post_processor": {
    "type": "ByteLevel",
    "add_prefix_space": true,
    "trim_offsets": false,
    "use_regex": true
  },
  "decoder": {
    "type": "ByteLevel",
    "add_prefix_space": true,
    "trim_offsets": true,
    "use_regex": true
  },
  "model": {
    "type": "BPE",
    "dropout": null,
    "unk_token": null,
    "continuing_subword_prefix": null,
    "end_of_word_suffix": null,
    "fuse_unk": false,
    "byte_fallback": false,
    "ignore_merges": false,
    "vocab": {
      "<eos_de>": 0,
      "<eos_en>": 1,
      "<pad>": 2,
      "!": 3,
      "\"": 4,
      "#": 5,
      "$": 6,
      "%": 7,
      "&": 8,
      "'": 9,
      "(": 10,
      ")": 11,
      "*": 12,
      "+": 13,
      ",": 14,
      "-": 15,
      ".": 16,
      "/": 17,
      "0": 18,
      "1": 19,
      "2": 20,
      "3": 21,
      "4": 22,
      "5": 23,
      "6": 24,
      "7": 25,
      "8": 26,
      "9": 27,
      ":": 28,
      ";": 29,
      "<": 30,
      "=": 31,
      ">": 32,
      "?": 33,
      "@": 34,
      "A": 35,
      "B": 36,
      "C": 37,
      "D": 38,
      "E": 39,
      "F": 40,
      "G": 41,
      "H": 42,
      "I": 43,
      "J": 44,
      "K": 45,
      "L": 46,
      "M": 47,
      "N": 48,
      "O": 49,
      "P": 50,
      "Q": 51,
      "R": 52,
      "S": 53,
      "T": 54,
      "U": 55,
      "V": 56,
      "W": 57,
      "X": 58,
      "Y": 59,
      "Z": 60,
      "[": 61,
      "\\": 62,
      "]": 63,
      "^": 64,
      "_": 65,
      "`": 66,
      "a": 67,
      "b": 68,
      "c": 69,
      "d": 70,
      "e": 71,
      "f": 72,
      "g": 73,
      "h": 74,
      "i": 75,
      "j": 76,
      "k": 77,
      "l": 78,
      "m": 79,
      "n": 80,
      "o": 81,
      "p": 82,
      "q": 83,
      "r": 84,
      "s": 85,
      "t": 86,
      "u": 87,
      "v": 88,
      "w": 89,
      "x": 90,
      "y": 91,
      "z": 92,
      "{": 93,
      "|": 94,
      "}": 95,
      "~": 96,
      "¡": 97,
      "¢": 98,
      "£": 99,
      "¤": 100,
      "¥": 101,
      "¦": 102,
      "§": 103,
      "¨": 104,
      "©": 105,
      "ª": 106,
      "«": 107,
      "¬": 108,
      "®": 109,
      "¯": 110,
      "°": 111,
      "±": 112,
      "²": 113,
      "³": 114,
      "´": 115,
      "µ": 116,
      "¶": 117,
      "·": 118,
      "¸": 119,
      "¹": 120,
      "º": 121,
      "»": 122,
      "¼": 123,
      "½": 124,
      "¾": 125,
      "¿": 126,
      "À": 127,
      "Á": 128,
      "Â": 129,
      "Ã": 130,
      "Ä": 131,
      "Å": 132,
      "Æ": 133,
      "Ç": 134,
      "È": 135,
      "É": 136,
      "Ê": 137,
      "Ë": 138,
      "Ì": 139,
      "Í": 140,
      "Î": 141,
      "Ï": 142,
      "Ð": 143,
      "Ñ": 144,
      "Ò": 145,
      "Ó": 146,
      "Ô": 147,
      "Õ": 148,
      "Ö": 149,
      "×": 150,
      "Ø": 151,
      "Ù": 152,
      "Ú": 153,
      "Û": 154,
      "Ü": 155,
      "Ý": 156,
      "Þ": 157,
      "ß": 158,
      "à": 159,
      "á": 160,
      "â": 161,
      "ã": 162,
      "ä": 163,
      "å": 164,
      "æ": 165,
      "ç": 166,
      "è": 167,
      "é": 168,
      "ê": 169,
      "ë": 170,
      "ì": 171,
      "í": 172,
      "î": 173,
      "ï": 174,
      "ð": 175,
      "ñ": 176,
      "ò": 177,
      "ó": 178,
      "ô": 179,
      "õ": 180,
      "ö": 181,
      "÷": 182,
      "ø": 183,
      "ù": 184,
      "ú": 185,
      "û": 186,
      "ü": 187,
      "ý": 188,
      "þ": 189,
      "ÿ": 190,
      "Ā": 191,
      "ā": 192,
      "Ă": 193,
      "ă": 194,
      "Ą": 195,
      "ą": 196,
      "Ć": 197,
      "ć": 198,
      "Ĉ": 199,
      "ĉ": 200,
      "Ċ": 201,
      "ċ": 202,
      "Č": 203,
      "č": 204,
      "Ď": 205,
      "ď": 206,
      "Đ": 207,
      "đ": 208,
      "Ē": 209,
      "ē": 210,
      "Ĕ": 211,
      "ĕ": 212,
      "Ė": 213,
      "ė": 214,
      "Ę": 215,
      "ę": 216,
      "Ě": 217,
      "ě": 218,
      "Ĝ": 219,
      "ĝ": 220,
      "Ğ": 221,
      "ğ": 222,
      "Ġ": 223,
      "ġ": 224,
      "Ģ": 225,
      "ģ": 226,
      "Ĥ": 227,
      "ĥ": 228,
      "Ħ": 229,
      "ħ": 230,
      "Ĩ": 231,
      "ĩ": 232,
      "Ī": 233,
      "ī": 234,
      "Ĭ": 235,
      "ĭ": 236,
      "Į": 237,
      "į": 238,
      "İ": 239,
      "ı": 240,
      "Ĳ": 241,
      "ĳ": 242,
      "Ĵ": 243,
      "ĵ": 244,
      "Ķ": 245,
      "ķ": 246,
      "ĸ": 247,
      "Ĺ": 248,
      "ĺ": 249,
      "Ļ": 250,
      "ļ": 251,
      "Ľ": 252,
      "ľ": 253,
      "Ŀ": 254,
      "ŀ": 255,
      "Ł": 256,
      "ł": 257,
      "Ń": 258,
      "en": 259,
      "er": 260,
      "Ġ.": 261,
      "in": 262,
      "Ġt": 263,
      "ch": 264,
      "Ġa": 265,
      "Ġs": 266,
      "Ġd": 267,
      "Ġw": 268,
      "Ġ,": 269,
      "Ġi": 270,
      "Ġth": 271,
      "es": 272,
      "an": 273,
      "Ġm": 274,
      "ie": 275,
      "un": 276,
      "on": 277,
      "at": 278,
      "Ġh": 279,
      "Ġb": 280,
      "as": 281,
      "Ġg": 282,
      "st": 283,
      "re": 284,
      "Ġe": 285,
      "it": 286,
      "Ġ&": 287,
      "ich": 288,
      "ll": 289,
      "Ġf": 290,
      "Ġthe": 291,
      "Ġn": 292,
      "Ġo": 293,
      "os": 294,
      "Ġp": 295,
      "ar": 296,
      "or": 297,
      "ap": 298,
      "le": 299,
      "ou": 300,
      "is": 301,
      "Ġin": 302,
      "ot": 303,
      "ing": 304,
      "Ġc": 305,
      "Ġk": 306,
      "apos": 307,
      "Ġv": 308,
      "und": 309,
      "te": 310,
      "Ġan": 311,
      "ir": 312,
      "Ġein": 313,
      "al": 314,
      "Ġl": 315,
      "Ġto": 316,
      "Ã¼": 317,
      "th": 318,
      "ig": 319,
      "om": 320,
      "and": 321,
      "Ġbe": 322,
      "Ġz": 323,
      "qu": 324,
      "Ġof": 325,
      "us": 326,
      "ed": 327,
      "Ġy": 328,
      "Ã¤": 329,
      "ut": 330,
      "Ġwe": 331,
      "Ġdas": 332,
      "Ġdie": 333,
      "ur": 334,
      "Ġist": 335,
      "ion": 336,
      "ent": 337,
      "quot": 338,
      "ere": 339,
      "Ġis": 340,
      "Ġ?": 341,
      "Ġse": 342,
      "ro": 343,
      "Ġha": 344,
      "Ġyou": 345,
      "de": 346,
      "ve": 347,
      "ic": 348,
      "Ġsie": 349,
      "Ġthat": 350,
      "ra": 351,
      "Ġand": 352,
      "icht": 353,
      "Ġit": 354,
      "Ġwir": 355,
      "ow": 356,
      "ies": 357,
      "Ġge": 358,
      "so": 359,
      "ge": 360,
      "Ã¶": 361,
      "hr": 362,
      "um": 363,
      "Ġst": 364,
      "ier": 365,
      "Ġj": 366,
      "Ġund": 367,
      "ter": 368,
      "ke": 369,
      "il": 370,
      "ach": 371,
      "Ġder": 372,
      "ber": 373,
      "Ġver": 374,
      "ten": 375,
      "am": 376,
      "Ġre": 377,
      "Ġwh": 378,
      "ein": 379,
      "em": 380,
      "lich": 381,
      "ind": 382,
      "Ġun": 383,
      "ben": 384,
      "all": 385,
      "Ġes": 386,
      "gen": 387,
      "Ġwas": 388,
      "Ġich": 389,
      "sch": 390,
      "Ġso": 391,
      "we": 392,
      "Ġzu": 393,
      "Ġer": 394,
      "im": 395,
      "uf": 396,
      "Ġ:": 397,
      "Ġon": 398,
      "Ġthis": 399,
      "ay": 400,
      "be": 401,
      "Ġsch": 402,
      "Ġr": 403,
      "Ġal": 404,
      "ol": 405,
      "den": 406,
      "der": 407,
      "ct": 408,
      "Ġle": 409,
      "Ġnicht": 410,
      "ung": 411,
      "el": 412,
      "ver": 413,
      "Ġdies": 414,
      "et": 415,
      "Ġdo": 416,
      "nen": 417,
      "Ã¼r": 418,
      "uch": 419,
      "ck": 420,
      "id": 421,
      "Ġall": 422,
      "ht": 423,
      "Ġfor": 424,
      "ld": 425,
      "Ġeine": 426,
      "Ġme": 427,
      "Ġden": 428,
      "Ġab": 429,
      "op": 430,
      "Ġne": 431,
      "ation": 432,
      "ann": 433,
      "sen": 434,
      "Ġwar": 435,
      "ce": 436,
      "Ġpro": 437,
      "Ġare": 438,
      "he": 439,
      "Ġauf": 440,
      "ill": 441,
      "if": 442,
      "Ġvon": 443,
      "ly": 444,
      "ag": 445,
      "hen": 446,
      "Ġgo": 447,
      "Ġim": 448,
      "ÃŁ": 449,
      "est": 450,
      "the": 451,
      "Ġmit": 452,
      "ess": 453,
      "ist": 454,
      "Ġsp": 455,
      "ally": 456,
      "das": 457,
      "Ġsind": 458,
      "ome": 459,
      "Ġhe": 460,
      "Ġhave": 461,
      "au": 462,
      "isch": 463,
      "Ġch": 464,
      "ul": 465,
      "ith": 466,
      "Ġwie": 467,
      "se": 468,
      "Ġsich": 469,
      "Ġuns": 470,
      "kt": 471,
      "Ġcan": 472,
      "Ġmo": 473,
      "Ġman": 474,
      "ust": 475,
      "Ġwhat": 476,
      "Ġdass": 477,
      "men": 478,
      "ib": 479,
      "Ġthey": 480,
      "Ġwor": 481,
      "Ã¼ber": 482,
      "out": 483,
      "Ġnot": 484,
      "Ġwith": 485,
      "ell": 486,
      "ant": 487,
      "now": 488,
      "Ġhaben": 489,
      "wir": 490,
      "Ã¶n": 491,
      "Ġex": 492,
      "Ġaus": 493,
      "Ġ1": 494,
      "Ġar": 495,
      "ok": 496,
      "Ġih": 497,
      "Ġli": 498,
      "ab": 499,
      "Ġhat": 500,
      "ad": 501,
      "sie": 502,
      "Ġabout": 503,
      "00": 504,
      "up": 505,
      "Ġ-": 506,
      "ĠfÃ¼r": 507,
      "Ġges": 508,
      "af": 509,
      "Ġfr": 510,
      "iel": 511,
      "aus": 512,
      "Ġno": 513,
      "Ġas": 514,
      "Ġwer": 515,
      "Ġat": 516,
      "ers": 517,
      "ik": 518,
      "ah": 519,
      "enn": 520,
      "od": 521,
      "ould": 522,
      "ĠÃ¼ber": 523,
      "ze": 524,
      "Ġcom": 525,
      "ort": 526,
      "ne": 527,
      "art": 528,
      "Ġte": 529,
      "Ġthere": 530,
      "ĠkÃ¶n": 531,
      "but": 532,
      "ight": 533,
      "Ġmy": 534,
      "Ġen": 535,
      "ien": 536,
      "ese": 537,
      "eine": 538,
      "Ġalso": 539,
      "Ġum": 540,
      "ine": 541,
      "Ã¤n": 542,
      "Ġsh": 543,
      "Ġtr": 544,
      "Ġde": 545,
      "Ġus": 546,
      "og": 547,
      "Ġ--": 548,
      "Ġdes": 549,
      "mer": 550,
      "ahr": 551,
      "iv": 552,
      "Ġsa": 553,
      "was": 554,
      "ive": 555,
      "Ġor": 556,
      "Ġcon": 557,
      "Ġone": 558,
      "Ġma": 559,
      "Ġsome": 560,
      "Ġlo": 561,
      "Ġgr": 562,
      "ute": 563,
      "aber": 564,
      "ink": 565,
      "die": 566,
      "lt": 567,
      "oll": 568,
      "Ġpe": 569,
      "Ġpl": 570,
      "Ġlike": 571,
      "Ġdiese": 572,
      "Ġmach": 573,
      "ank": 574,
      "Ġvor": 575,
      "ure": 576,
      "Ġhier": 577,
      "ople": 578,
      "Ġjust": 579,
      "this": 580,
      "ity": 581,
      "Ġher": 582,
      "ste": 583,
      "igen": 584,
      "her": 585,
      "ate": 586,
      "Ġdem": 587,
      "Ġget": 588,
      "ff": 589,
      "ast": 590,
      "ang": 591,
      "Ġals": 592,
      "Ġda": 593,
      "Ġvery": 594,
      "Ġent": 595,
      "iert": 596,
      "Ġknow": 597,
      "one": 598,
      "ern": 599,
      "Ġmen": 600,
      "ĠkÃ¶nnen": 601,
      "Ġpeople": 602,
      "Ġthing": 603,
      "Ġze": 604,
      "Ġ2": 605,
      "Ġgen": 606,
      "Ġeinen": 607,
      "our": 608,
      "ieren": 609,
      "Ġfrom": 610,
      "ibt": 611,
      "Ġpr": 612,
      "ted": 613,
      "zt": 614,
      "ass": 615,
      "pen": 616,
      "Ġthem": 617,
      "Ġout": 618,
      "Ġinter": 619,
      "Ġsehr": 620,
      "Ġwerden": 621,
      "pl": 622,
      "you": 623,
      "zen": 624,
      "Ġkann": 625,
      "ige": 626,
      "Ġthese": 627,
      "Ġsein": 628,
      "Ġour": 629,
      "ite": 630,
      "ear": 631,
      "Ġthink": 632,
      "chen": 633,
      "Ġnach": 634,
      "Ġgl": 635,
      "Ġhere": 636,
      "Ġsee": 637,
      "ild": 638,
      "wh": 639,
      "Ġup": 640,
      "ain": 641,
      "they": 642,
      "Ġet": 643,
      "Ġmein": 644,
      "ide": 645,
      "Ġgibt": 646,
      "Ġco": 647,
      "hl": 648,
      "ple": 649,
      "Ġgoing": 650,
      "fer": 651,
      "Ġauch": 652,
      "oug": 653,
      "per": 654,
      "Ġmensch": 655,
      "Ġact": 656,
      "ft": 657,
      "Ġam": 658,
      "Ġgro": 659,
      "Ġdar": 660,
      "ungen": 661,
      "Ġqu": 662,
      "Ġmich": 663,
      "ble": 664,
      "for": 665,
      "Ġhow": 666,
      "Ġbr": 667,
      "ame": 668,
      "age": 669,
      "Ġkind": 670,
      "ard": 671,
      "Ġwird": 672,
      "Ġihnen": 673,
      "dies": 674,
      "iz": 675,
      "Ġmus": 676,
      "Ġwill": 677,
      "Ġnur": 678,
      "Ġste": 679,
      "wo": 680,
      "Ġyour": 681,
      "ken": 682,
      "ans": 683,
      "Ġreally": 684,
      "Ġgesch": 685,
      "Ġkom": 686,
      "ug": 687,
      "Ã¼ck": 688,
      "Ã¤t": 689,
      "very": 690,
      "ect": 691,
      "ther": 692,
      "thing": 693,
      "ack": 694,
      "Ġfra": 695,
      "ose": 696,
      "ial": 697,
      "Ġdon": 698,
      "ip": 699,
      "itt": 700,
      "Ġnoch": 701,
      "Ġyear": 702,
      "Ã¶r": 703,
      "Ġlook": 704,
      "Ġhad": 705,
      "reat": 706,
      "Ġfe": 707,
      "ause": 708,
      "Ġwur": 709,
      "schaf": 710,
      "issen": 711,
      "Ġhabe": 712,
      "Ġmore": 713,
      "keit": 714,
      "ous": 715,
      "Ġtim": 716,
      "du": 717,
      "Ġwenn": 718,
      "Ġby": 719,
      "Ġunter": 720,
      "ually": 721,
      "ise": 722,
      "Ã¤ch": 723,
      "Ġbl": 724,
      "Ġbec": 725,
      "ia": 726,
      "are": 727,
      "Ġsehen": 728,
      "olog": 729,
      "to": 730,
      "Ġwere": 731,
      "man": 732,
      "Ġhas": 733,
      "Ġro": 734,
      "Ġdid": 735,
      "Ġihr": 736,
      "Ġwork": 737,
      "ud": 738,
      "Ġkon": 739,
      "fen": 740,
      "Ġetwas": 741,
      "Ġper": 742,
      "sten": 743,
      "Ġfl": 744,
      "Ġaber": 745,
      "Ġwould": 746,
      "also": 747,
      "me": 748,
      "Ġeiner": 749,
      "Ġfa": 750,
      "ment": 751,
      "that": 752,
      "Ġeinem": 753,
      "Ġbes": 754,
      "pt": 755,
      "end": 756,
      "Ġleben": 757,
      "etzt": 758,
      "Ġnow": 759,
      "ak": 760,
      "Ġwant": 761,
      "lle": 762,
      "urch": 763,
      "ick": 764,
      "ue": 765,
      "Ġsag": 766,
      "auf": 767,
      "sp": 768,
      "Ġeinf": 769,
      "Ġbut": 770,
      "ven": 771,
      "Ġproble": 772,
      "mal": 773,
      "ĠmÃ¶": 774,
      "ischen": 775,
      "Ġhap": 776,
      "hn": 777,
      "hal": 778,
      "ater": 779,
      "Ġbra": 780,
      "Ġwho": 781,
      "Ġmenschen": 782,
      "ong": 783,
      "chn": 784,
      "Ġjahr": 785,
      "Ġvie": 786,
      "wer": 787,
      "heit": 788,
      "Ġmir": 789,
      "Ġway": 790,
      "ts": 791,
      "Ġwirk": 792,
      "Ġsy": 793,
      "sel": 794,
      "Ġgot": 795,
      "Ġviel": 796,
      "Ġzwe": 797,
      "ub": 798,
      "Ġevery": 799,
      "Ġactually": 800,
      "Ġworld": 801,
      "ign": 802,
      "Ġwelt": 803,
      "ob": 804,
      "Ġoder": 805,
      "Ġaf": 806,
      "Ġag": 807,
      "ische": 808,
      "ĠgroÃŁ": 809,
      "Ġra": 810,
      "Ġbeg": 811,
      "Ġwirklich": 812,
      "alk": 813,
      "Ġcomp": 814,
      "tr": 815,
      "Ġright": 816,
      "Ġide": 817,
      "Ġeinfach": 818,
      "Ġneed": 819,
      "ore": 820,
      "Ã¼n": 821,
      "Ġmehr": 822,
      "Ġtime": 823,
      "Ġwissen": 824,
      "Ġlet": 825,
      "Ġ!": 826,
      "ions": 827,
      "Ġph": 828,
      "Ġdann": 829,
      "Ġsel": 830,
      "Ġsaid": 831,
      "Ġthen": 832,
      "Ġif": 833,
      "Ġsay": 834,
      "Ġsc": 835,
      "Ġnew": 836,
      "Ġwo": 837,
      "Ġproblem": 838,
      "Ġdurch": 839,
      "Ġthings": 840,
      "Ã¼s": 841,
      "ory": 842,
      "Ġdif": 843,
      "Ġdr": 844,
      "Ġdieser": 845,
      "Ġgan": 846,
      "Ġcl": 847,
      "Ġmill": 848,
      "liche": 849,
      "schaft": 850,
      "Ġzur": 851,
      "Ġalle": 852,
      "eren": 853,
      "che": 854,
      "Ġta": 855,
      "Ġcall": 856,
      "pe": 857,
      "ert": 858,
      "pr": 859,
      "Ġihre": 860,
      "ough": 861,
      "there": 862,
      "Ġtun": 863,
      "Ġtra": 864,
      "Ġmachen": 865,
      "Ġtheir": 866,
      "Ã¤r": 867,
      "Ġjed": 868,
      "mt": 869,
      "stem": 870,
      "Ġwurde": 871,
      "ac": 872,
      "beit": 873,
      "rei": 874,
      "lie": 875,
      "Ġcould": 876,
      "chte": 877,
      "ult": 878,
      "assen": 879,
      "Ġwhen": 880,
      "inge": 881,
      "wie": 882,
      "Ġtwo": 883,
      "cht": 884,
      "als": 885,
      "Ġany": 886,
      "Ġbet": 887,
      "Ġtechn": 888,
      "Ã¤nder": 889,
      "Ġnat": 890,
      "Ġyears": 891,
      "ree": 892,
      "Ġfir": 893,
      "Ġbei": 894,
      "Ġmeine": 895,
      "Ġhappen": 896,
      "Ġother": 897,
      "Ġpo": 898,
      "Ġstr": 899,
      "Ġkeine": 900,
      "Ġinto": 901,
      "Ġbo": 902,
      "Ġind": 903,
      "Ġmake": 904,
      "Ġbeen": 905,
      "Ġob": 906,
      "inn": 907,
      "âĢ": 908,
      "Ġgut": 909,
      "ire": 910,
      "ĠâĢ": 911,
      "Ġzeit": 912,
      "Ġart": 913,
      "Ġfo": 914,
      "zu": 915,
      "Ġsomething": 916,
      "con": 917,
      "ges": 918,
      "Ġlie": 919,
      "Ġdiffer": 920,
      "ice": 921,
      "000": 922,
      "Ġger": 923,
      "Ġpart": 924,
      "ange": 925,
      "ommen": 926,
      "stell": 927,
      "ile": 928,
      "iÃŁ": 929,
      "ical": 930,
      "what": 931,
      "ace": 932,
      "gt": 933,
      "Ġ;": 934,
      "port": 935,
      "Ġunsere": 936,
      "Ġpre": 937,
      "ĠwÃ¼r": 938,
      "Ġbecause": 939,
      "Ã¤hr": 940,
      "Ġstar": 941,
      "Ġdoes": 942,
      "oss": 943,
      "Ġsoll": 944,
      "Ġmuch": 945,
      "fl": 946,
      "lichen": 947,
      "iter": 948,
      "Ġlitt": 949,
      "ser": 950,
      "iver": 951,
      "Ġvers": 952,
      "Ġ3": 953,
      "Ġpass": 954,
      "wenn": 955,
      "Ġlittle": 956,
      "Ġbin": 957,
      "Ġlot": 958,
      "ife": 959,
      "Ġkle": 960,
      "Ġover": 961,
      "Ġjetzt": 962,
      "ĠmÃ¼s": 963,
      "Ġzum": 964,
      "ds": 965,
      "Ġbu": 966,
      "Ġimmer": 967,
      "ger": 968,
      "Ġpers": 969,
      "Ġwoll": 970,
      "Ġhand": 971,
      "ish": 972,
      "able": 973,
      "Ġdu": 974,
      "Ġgood": 975,
      "Ġback": 976,
      "Ġres": 977,
      "Ġfirst": 978,
      "ient": 979,
      "ens": 980,
      "way": 981,
      "Ġmar": 982,
      "rie": 983,
      "ody": 984,
      "ys": 985,
      "ktion": 986,
      "other": 987,
      "Ġhin": 988,
      "Ġgew": 989,
      "bst": 990,
      "ichtig": 991,
      "ĠâĢĵ": 992,
      "form": 993,
      "ath": 994,
      "Ġkein": 995,
      "cent": 996,
      "Ġgem": 997,
      "Ġsagte": 998,
      "Ġzwei": 999,
      "aten": 1000,
      "own": 1001,
      "Ġspe": 1002,
      "uchen": 1003,
      "ichte": 1004,
      "Ġkl": 1005,
      "Ġshe": 1006,
      "ĠmÃ¼ssen": 1007,
      "Ġverb": 1008,
      "Ġtalk": 1009,
      "Ġwell": 1010,
      "ry": 1011,
      "gl": 1012,
      "Ġdis": 1013,
      "Ġfun": 1014,
      "ungs": 1015,
      "Ġdieses": 1016,
      "Ġwhere": 1017,
      "erst": 1018,
      "schie": 1019,
      "gan": 1020,
      "pro": 1021,
      "Ġwhich": 1022,
      "fÃ¼": 1023,
      "Ġhatte": 1024,
      "Ġad": 1025,
      "Ġreal": 1026,
      "Ġho": 1027,
      "Ġwaren": 1028,
      "Ġthan": 1029,
      "aut": 1030,
      "ations": 1031,
      "war": 1032,
      "ase": 1033,
      "Ġdifferent": 1034,
      "Ġmon": 1035,
      "Ġ19": 1036,
      "ves": 1037,
      "Ġfind": 1038,
      "Ġmal": 1039,
      "Ġem": 1040,
      "Ġsystem": 1041,
      "fe": 1042,
      "iger": 1043,
      "tern": 1044,
      "Ġap": 1045,
      "Ġtechnolog": 1046,
      "Ġthose": 1047,
      "ats": 1048,
      "acht": 1049,
      "Ġdinge": 1050,
      "Ġarbeit": 1051,
      "Ġgeht": 1052,
      "Ġleute": 1053,
      "Ġselbst": 1054,
      "bar": 1055,
      "ĠfÃ¼": 1056,
      "Ġac": 1057,
      "ingen": 1058,
      "Ġdiesem": 1059,
      "Ġshow": 1060,
      "Ġalles": 1061,
      "ale": 1062,
      "well": 1063,
      "nun": 1064,
      "Ġele": 1065,
      "gr": 1066,
      "ric": 1067,
      "Ġlife": 1068,
      "ty": 1069,
      "Ġgeh": 1070,
      "hier": 1071,
      "Ġgeb": 1072,
      "ph": 1073,
      "Ġglau": 1074,
      "ated": 1075,
      "ition": 1076,
      "Ġmillion": 1077,
      "net": 1078,
      "Ġja": 1079,
      "Ġdam": 1080,
      "leich": 1081,
      "hmen": 1082,
      "vor": 1083,
      "round": 1084,
      "Ġnie": 1085,
      "Ġandere": 1086,
      "Ġday": 1087,
      "Ġland": 1088,
      "nte": 1089,
      "no": 1090,
      "br": 1091,
      "gel": 1092,
      "glich": 1093,
      "Ġwhy": 1094,
      "Ġhis": 1095,
      "Ġdown": 1096,
      "isten": 1097,
      "Ġbis": 1098,
      "Ġonly": 1099,
      "igkeit": 1100,
      "Ġbek": 1101,
      "Ġunser": 1102,
      "ving": 1103,
      "ian": 1104,
      "Ġhum": 1105,
      "Ġviele": 1106,
      "Ġmed": 1107,
      "Ġsol": 1108,
      "ting": 1109,
      "ram": 1110,
      "Ġsagen": 1111,
      "Ġau": 1112,
      "Ġbig": 1113,
      "unden": 1114,
      "ents": 1115,
      "Ġexper": 1116,
      "wn": 1117,
      "tra": 1118,
      "Ġwieder": 1119,
      "Ġprodu": 1120,
      "Ġok": 1121,
      "Ġhel": 1122,
      "Ġdiesen": 1123,
      "Ġteil": 1124,
      "ible": 1125,
      "Ġgreat": 1126,
      "auen": 1127,
      "ru": 1128,
      "urn": 1129,
      "Ġmost": 1130,
      "Ġ5": 1131,
      "Ġsm": 1132,
      "onder": 1133,
      "Ġtake": 1134,
      "erg": 1135,
      "xt": 1136,
      "von": 1137,
      "ahre": 1138,
      "Ġpol": 1139,
      "vel": 1140,
      "Ġsim": 1141,
      "Ġben": 1142,
      "Ġstud": 1143,
      "ord": 1144,
      "Ġgu": 1145,
      "Ġtell": 1146,
      "Ġmuss": 1147,
      "Ġ20": 1148,
      "act": 1149,
      "Ġoh": 1150,
      "ict": 1151,
      "let": 1152,
      "ious": 1153,
      "Ġcalled": 1154,
      "thank": 1155,
      "Ġmany": 1156,
      "Ġerf": 1157,
      "Ġthree": 1158,
      "Ġzus": 1159,
      "Ġdesign": 1160,
      "day": 1161,
      "anke": 1162,
      "ahl": 1163,
      "Ġeven": 1164,
      "gend": 1165,
      "Ġbit": 1166,
      "Ġpar": 1167,
      "Ġperson": 1168,
      "uen": 1169,
      "ution": 1170,
      "itÃ¤t": 1171,
      "Ġstart": 1172,
      "Ġbest": 1173,
      "Ġfre": 1174,
      "Ġbef": 1175,
      "Ġpa": 1176,
      "Ġcar": 1177,
      "Ġwr": 1178,
      "Ġmin": 1179,
      "igt": 1180,
      "ience": 1181,
      "ade": 1182,
      "Ġwen": 1183,
      "Ġir": 1184,
      "Ġaround": 1185,
      "Ġhal": 1186,
      "ought": 1187,
      "ren": 1188,
      "ance": 1189,
      "vol": 1190,
      "Ġuse": 1191,
      "isp": 1192,
      "lleicht": 1193,
      "tro": 1194,
      "Ġschl": 1195,
      "ary": 1196,
      "Ġthr": 1197,
      "Ġschw": 1198,
      "Ġfin": 1199,
      "ner": 1200,
      "Ġ4": 1201,
      "iss": 1202,
      "ĠmÃ¶chte": 1203,
      "Ġcome": 1204,
      "cess": 1205,
      "igh": 1206,
      "ĠwÃ¼rde": 1207,
      "ammen": 1208,
      "..": 1209,
      "Ġplan": 1210,
      "Ġquest": 1211,
      "hlen": 1212,
      "det": 1213,
      "Ġgeschichte": 1214,
      "Ġamer": 1215,
      "Ġschon": 1216,
      "Ġdoing": 1217,
      "ful": 1218,
      "mit": 1219,
      "Ġjahren": 1220,
      "ors": 1221,
      "Ġeines": 1222,
      "Ġjahre": 1223,
      "co": 1224,
      "Ġlang": 1225,
      "Ġ10": 1226,
      "ÃŁen": 1227,
      "Ġcoun": 1228,
      "Ġmacht": 1229,
      "Ġtrans": 1230,
      "body": 1231,
      "Ġentw": 1232,
      "ject": 1233,
      "Ġins": 1234,
      "how": 1235,
      "Ġfam": 1236,
      "Ġnun": 1237,
      "Ġbeisp": 1238,
      "diese": 1239,
      "Ġel": 1240,
      "Ġganz": 1241,
      "Ġwahr": 1242,
      "Ġagain": 1243,
      "arn": 1244,
      "Ġant": 1245,
      "Ġoff": 1246,
      "Ġheraus": 1247,
      "les": 1248,
      "Ġgef": 1249,
      "ons": 1250,
      "Ġput": 1251,
      "Ġdoll": 1252,
      "Ġweil": 1253,
      "Ġanderen": 1254,
      "Ġstory": 1255,
      "Ġsur": 1256,
      "vie": 1257,
      "Ġsame": 1258,
      "Ġkam": 1259,
      "Ġhim": 1260,
      "zent": 1261,
      "ism": 1262,
      "Ġcour": 1263,
      "Ġgrund": 1264,
      "Ġzusammen": 1265,
      "Ġdollar": 1266,
      "Ġ...": 1267,
      "Ġpercent": 1268,
      "ces": 1269,
      "Ġmom": 1270,
      "Ġweiter": 1271,
      "geb": 1272,
      "Ġthrough": 1273,
      "Ġpat": 1274,
      "ĠzurÃ¼ck": 1275,
      "tet": 1276,
      "tel": 1277,
      "Ġspiel": 1278,
      "ucht": 1279,
      "ower": 1280,
      "Ġbi": 1281,
      "Ġklein": 1282,
      "nis": 1283,
      "ics": 1284,
      "Ġzie": 1285,
      "Ġstat": 1286,
      "Ġcomput": 1287,
      "Ġbas": 1288,
      "llen": 1289,
      "ically": 1290,
      "ved": 1291,
      "Ġdavon": 1292,
      "ha": 1293,
      "Ġrel": 1294,
      "Ã¼rlich": 1295,
      "je": 1296,
      "mo": 1297,
      "sy": 1298,
      "Ã¤h": 1299,
      "Ġuniver": 1300,
      "Ġmean": 1301,
      "cre": 1302,
      "int": 1303,
      "Ġnor": 1304,
      "Ġsup": 1305,
      "ual": 1306,
      "Ġkr": 1307,
      "old": 1308,
      "kl": 1309,
      "Ġdrei": 1310,
      "Ġgleich": 1311,
      "Ã¤chlich": 1312,
      "Ġdidn": 1313,
      "Ġbeing": 1314,
      "Ġmade": 1315,
      "Ġwerde": 1316,
      "ep": 1317,
      "iden": 1318,
      "ction": 1319,
      "Ġtry": 1320,
      "Ġdamit": 1321,
      "Ġfamil": 1322,
      "Ġchild": 1323,
      "Ġeinz": 1324,
      "Ã¶ÃŁ": 1325,
      "Ġlong": 1326,
      "ull": 1327,
      "rechen": 1328,
      "Ġcourse": 1329,
      "Ġshould": 1330,
      "self": 1331,
      "Ġhuman": 1332,
      "Ġbild": 1333,
      "Ġmay": 1334,
      "Ġfact": 1335,
      "ĠweiÃŁ": 1336,
      "Ġplay": 1337,
      "its": 1338,
      "ierte": 1339,
      "Ġexam": 1340,
      "Ġask": 1341,
      "mun": 1342,
      "omen": 1343,
      "Ġreg": 1344,
      "Ġtag": 1345,
      "teil": 1346,
      "angen": 1347,
      "Ġinform": 1348,
      "Ġbede": 1349,
      "uss": 1350,
      "ler": 1351,
      "Ġke": 1352,
      "Ġfunktion": 1353,
      "Ġform": 1354,
      "Ġaut": 1355,
      "bei": 1356,
      "Ġwarum": 1357,
      "Ã¤re": 1358,
      "Ġwichtig": 1359,
      "atsÃ¤chlich": 1360,
      "do": 1361,
      "Ġlearn": 1362,
      "Ġimport": 1363,
      "Ġorgan": 1364,
      "ix": 1365,
      "Ġtoday": 1366,
      "Ġhatten": 1367,
      "Ġheute": 1368,
      "Ġkinder": 1369,
      "Ġbuild": 1370,
      "Ġbeispiel": 1371,
      "tell": 1372,
      "Ġstill": 1373,
      "Ġmak": 1374,
      "kel": 1375,
      "Ġend": 1376,
      "mlich": 1377,
      "Ġpaar": 1378,
      "Ġwent": 1379,
      "io": 1380,
      "Ġgenau": 1381,
      "ĠÃ¶": 1382,
      "here": 1383,
      "ks": 1384,
      "Ġbewe": 1385,
      "ellen": 1386,
      "ina": 1387,
      "bec": 1388,
      "Ġfrage": 1389,
      "cial": 1390,
      "Ġeinige": 1391,
      "ely": 1392,
      "wor": 1393,
      "ichten": 1394,
      "halten": 1395,
      "Ġstarted": 1396,
      "ating": 1397,
      "Ġihn": 1398,
      "bt": 1399,
      "Ġenerg": 1400,
      "Ġear": 1401,
      "oth": 1402,
      "ize": 1403,
      "Ġanother": 1404,
      "dem": 1405,
      "Ġgegen": 1406,
      "Ġko": 1407,
      "Ġscho": 1408,
      "Ġfeel": 1409,
      "Ġbere": 1410,
      "Ġown": 1411,
      "az": 1412,
      "Ã¼t": 1413,
      "entlich": 1414,
      "Ġsach": 1415,
      "Ġinteress": 1416,
      "Ġimportant": 1417,
      "aph": 1418,
      "Ġeigen": 1419,
      "ĠverÃ¤nder": 1420,
      "Ġnichts": 1421,
      "Ġdec": 1422,
      "Ġgemacht": 1423,
      "Ġturn": 1424,
      "Ġgive": 1425,
      "orn": 1426,
      "Ġchange": 1427,
      "des": 1428,
      "Ġgra": 1429,
      "ennen": 1430,
      "Ġnum": 1431,
      "hren": 1432,
      "ings": 1433,
      "Ġsl": 1434,
      "wa": 1435,
      "Ġthought": 1436,
      "Ġmag": 1437,
      "Ġwollen": 1438,
      "rik": 1439,
      "halb": 1440,
      "because": 1441,
      "Ġdort": 1442,
      "stellen": 1443,
      "Ġfar": 1444,
      "Ġpassiert": 1445,
      "ationen": 1446,
      "Ġans": 1447,
      "Ġweg": 1448,
      "Ġidea": 1449,
      "Ġquestion": 1450,
      "ins": 1451,
      "Ġcountr": 1452,
      "ope": 1453,
      "ence": 1454,
      "Ġfil": 1455,
      "Ġfall": 1456,
      "da": 1457,
      "Ġinst": 1458,
      "Ġerz": 1459,
      "Ġcr": 1460,
      "chten": 1461,
      "these": 1462,
      "Ġjem": 1463,
      "Ġverl": 1464,
      "Ġrem": 1465,
      "schen": 1466,
      "yp": 1467,
      "iten": 1468,
      "sum": 1469,
      "ĠmÃ¶glich": 1470,
      "weise": 1471,
      "Ġdank": 1472,
      "oren": 1473,
      "under": 1474,
      "uten": 1475,
      "Ġgab": 1476,
      "ĠgrÃ¶ÃŁ": 1477,
      "Ġ200": 1478,
      "Ġrob": 1479,
      "my": 1480,
      "Ġlast": 1481,
      "Ġnever": 1482,
      "Ġdoesn": 1483,
      "Ġschn": 1484,
      "ids": 1485,
      "nten": 1486,
      "Ġgehen": 1487,
      "ma": 1488,
      "off": 1489,
      "Ġkommt": 1490,
      "esen": 1491,
      "Ġnet": 1492,
      "Ġschool": 1493,
      "cken": 1494,
      "Ġdenken": 1495,
      "Ġkommen": 1496,
      "Ġglaube": 1497,
      "Ġmoment": 1498,
      "Ġsieht": 1499,
      "ider": 1500,
      "Ġgener": 1501,
      "anz": 1502,
      "Ġdenke": 1503,
      "ĠÃ¤": 1504,
      "Ġeff": 1505,
      "Ġinv": 1506,
      "Ġtoo": 1507,
      "Ġerst": 1508,
      "Ġlove": 1509,
      "bo": 1510,
      "kte": 1511,
      "sche": 1512,
      "Ġvielleicht": 1513,
      "Ġmode": 1514,
      "Ġcreat": 1515,
      "Ġwurden": 1516,
      "Ġter": 1517,
      "ities": 1518,
      "eln": 1519,
      "Ġeinmal": 1520,
      "ubl": 1521,
      "Ġ&#": 1522,
      "Ġgel": 1523,
      "Ġbill": 1524,
      "dr": 1525,
      "Ġbelie": 1526,
      "Ã¤s": 1527,
      "Ġpower": 1528,
      "gar": 1529,
      "Ġser": 1530,
      "ational": 1531,
      "kommen": 1532,
      "inden": 1533,
      "schein": 1534,
      "Ġwater": 1535,
      "Ã¤d": 1536,
      "ĠkÃ¶nnte": 1537,
      "Ġsk": 1538,
      "Ġletz": 1539,
      "stand": 1540,
      "Ġvide": 1541,
      "Ġvis": 1542,
      "Ġ6": 1543,
      "sehen": 1544,
      "nehmen": 1545,
      "Ġtre": 1546,
      "ative": 1547,
      "Ġla": 1548,
      "gef": 1549,
      "atz": 1550,
      "Ġcoll": 1551,
      "bl": 1552,
      "ĠnatÃ¼rlich": 1553,
      "Ġcomple": 1554,
      "ĠdarÃ¼ber": 1555,
      "elt": 1556,
      "Ġmeiner": 1557,
      "cond": 1558,
      "Ġsit": 1559,
      "att": 1560,
      "Ġverw": 1561,
      "Ġafter": 1562,
      "Ġunderst": 1563,
      "land": 1564,
      "irn": 1565,
      "ters": 1566,
      "Ġber": 1567,
      "Ġstand": 1568,
      "ĠtatsÃ¤chlich": 1569,
      "uc": 1570,
      "ket": 1571,
      "Ġbesch": 1572,
      "utzen": 1573,
      "schieden": 1574,
      "Ġhigh": 1575,
      "ular": 1576,
      "she": 1577,
      "Ġits": 1578,
      "ward": 1579,
      "Ġnext": 1580,
      "Ġbetter": 1581,
      "Ġexample": 1582,
      "bs": 1583,
      "Ġted": 1584,
      "Ġbeh": 1585,
      "Ġwel": 1586,
      "afÃ¼r": 1587,
      "ium": 1588,
      "Ġwasser": 1589,
      "ehen": 1590,
      "Ġprot": 1591,
      "Ġdre": 1592,
      "alt": 1593,
      "Ġverste": 1594,
      "volution": 1595,
      "Ġcomputer": 1596,
      "Ġbess": 1597,
      "Ġset": 1598,
      "Ġsicher": 1599,
      "gram": 1600,
      "reich": 1601,
      "Ġthank": 1602,
      "ster": 1603,
      "Ã¶rt": 1604,
      "Ã¤nd": 1605,
      "Ġzw": 1606,
      "Ġbrain": 1607,
      "cy": 1608,
      "hing": 1609,
      "ility": 1610,
      "Ġziemlich": 1611,
      "Ġfour": 1612,
      "ĠnÃ¤ch": 1613,
      "Ġnatur": 1614,
      "Ġweit": 1615,
      "Ġzeigen": 1616,
      "Ġgeben": 1617,
      "Ġerste": 1618,
      "Ġdat": 1619,
      "Ġnam": 1620,
      "Ġfound": 1621,
      "ander": 1622,
      "Ġprozent": 1623,
      "Ġexpl": 1624,
      "Ġafric": 1625,
      "agen": 1626,
      "Ġkur": 1627,
      "uck": 1628,
      "Ġdone": 1629,
      "fin": 1630,
      "zie": 1631,
      "ists": 1632,
      "Ġnumber": 1633,
      "ital": 1634,
      "fr": 1635,
      "Ġseine": 1636,
      "Ġchar": 1637,
      "Ġinternet": 1638,
      "ĠdafÃ¼r": 1639,
      "anted": 1640,
      "Ġop": 1641,
      "Ġinterest": 1642,
      "Ġexperim": 1643,
      "sh": 1644,
      "ways": 1645,
      "cl": 1646,
      "ĠwÃ¤re": 1647,
      "Ġglob": 1648,
      "Ġtechnology": 1649,
      "ied": 1650,
      "atch": 1651,
      "Ġrun": 1652,
      "sam": 1653,
      "Ġbefore": 1654,
      "ond": 1655,
      "Ġcent": 1656,
      "Ġbre": 1657,
      "uff": 1658,
      "Ġcont": 1659,
      "Ġu": 1660,
      "Ġsort": 1661,
      "Ġdach": 1662,
      "Ġpict": 1663,
      "Ġhelp": 1664,
      "Ġsub": 1665,
      "sol": 1666,
      "Ã¶ren": 1667,
      "Ġlassen": 1668,
      "Ġ9": 1669,
      "Ġ15": 1670,
      "Ġplace": 1671,
      "Ġmight": 1672,
      "Ġokay": 1673,
      "Ġ7": 1674,
      "Ġbus": 1675,
      "Ġrobot": 1676,
      "cher": 1677,
      "ines": 1678,
      "gether": 1679,
      "Ġfew": 1680,
      "Ġgre": 1681,
      "Ġunderstand": 1682,
      "Ġmor": 1683,
      "oney": 1684,
      "ues": 1685,
      "Ġjo": 1686,
      "ĠschÃ¶n": 1687,
      "Ġdra": 1688,
      "unt": 1689,
      "Ã¶s": 1690,
      "dann": 1691,
      "danke": 1692,
      "Ġincre": 1693,
      "Ġcame": 1694,
      "ĠheiÃŁ": 1695,
      "utz": 1696,
      "aub": 1697,
      "alth": 1698,
      "ather": 1699,
      "Ġihren": 1700,
      "iness": 1701,
      "Ġfol": 1702,
      "okay": 1703,
      "los": 1704,
      "viel": 1705,
      "Ġago": 1706,
      "Ġpolit": 1707,
      "pf": 1708,
      "imm": 1709,
      "ĠglÃ¼ck": 1710,
      "Ġameric": 1711,
      "Ġjemand": 1712,
      "ave": 1713,
      "tre": 1714,
      "gew": 1715,
      "Ġgar": 1716,
      "hrt": 1717,
      "ule": 1718,
      "Ġgerade": 1719,
      "cted": 1720,
      "Ġfinden": 1721,
      "uer": 1722,
      "wort": 1723,
      "Ġsecond": 1724,
      "schied": 1725,
      "ood": 1726,
      "ited": 1727,
      "Ġfast": 1728,
      "Ġbrauchen": 1729,
      "ird": 1730,
      "Ġtogether": 1731,
      "ady": 1732,
      "aufen": 1733,
      "Ġsmall": 1734,
      "bab": 1735,
      "when": 1736,
      "Ġlar": 1737,
      "Ġimag": 1738,
      "Ġsprechen": 1739,
      "Ġunserer": 1740,
      "vent": 1741,
      "Ġ8": 1742,
      "Ġkre": 1743,
      "Ġmillionen": 1744,
      "ock": 1745,
      "Ġwanted": 1746,
      "Ġalways": 1747,
      "Ġfilm": 1748,
      "iar": 1749,
      "Ġlebens": 1750,
      "Ġsogar": 1751,
      "Ġsollte": 1752,
      "par": 1753,
      "na": 1754,
      "Ġlight": 1755,
      "Ġchang": 1756,
      "Ġused": 1757,
      "Ġjob": 1758,
      "Ġson": 1759,
      "Ġvier": 1760,
      "ures": 1761,
      "Ġphys": 1762,
      "Ġvom": 1763,
      "Ġ100": 1764,
      "Ġganze": 1765,
      "innen": 1766,
      "Ġeach": 1767,
      "Ġgeld": 1768,
      "immt": 1769,
      "Ġneue": 1770,
      "Ġlive": 1771,
      "ont": 1772,
      "Ġmove": 1773,
      "Ġverschieden": 1774,
      "ogr": 1775,
      "Ġpoint": 1776,
      "gest": 1777,
      "allen": 1778,
      "Ġwhole": 1779,
      "Ġschnell": 1780,
      "most": 1781,
      "Ġ50": 1782,
      "Ġsen": 1783,
      "Ġging": 1784,
      "Ġrec": 1785,
      "ĠgroÃŁe": 1786,
      "Ġgehirn": 1787,
      "Ġcre": 1788,
      "Ġstre": 1789,
      "Ġprof": 1790,
      "Ġgrow": 1791,
      "Ġmind": 1792,
      "where": 1793,
      "uge": 1794,
      "Ġmater": 1795,
      "Ġhaus": 1796,
      "ierung": 1797,
      "Ġwollte": 1798,
      "jekt": 1799,
      "Ġged": 1800,
      "ffen": 1801,
      "Ġbook": 1802,
      "Ġmut": 1803,
      "cept": 1804,
      "warum": 1805,
      "Ġeig": 1806,
      "Ġpatient": 1807,
      "Ġdata": 1808,
      "vers": 1809,
      "Ġwissenschaft": 1810,
      "unkt": 1811,
      "Ġhard": 1812,
      "Ã¤hlen": 1813,
      "Ġschle": 1814,
      "Ġsollten": 1815,
      "Ġ30": 1816,
      "Ġohne": 1817,
      "Ġnein": 1818,
      "Ġquite": 1819,
      "Ġentwic": 1820,
      "Ġchildren": 1821,
      "ĠhÃ¤t": 1822,
      "eah": 1823,
      "tty": 1824,
      "zeit": 1825,
      "Ġjeder": 1826,
      "ced": 1827,
      "eres": 1828,
      "Ġold": 1829,
      "iven": 1830,
      "oc": 1831,
      "Ġmil": 1832,
      "Ġhappened": 1833,
      "Ġmat": 1834,
      "Ġproject": 1835,
      "ps": 1836,
      "Ġanim": 1837,
      "ÃŁer": 1838,
      "Ġpra": 1839,
      "Ġsache": 1840,
      "arbeit": 1841,
      "Ġcell": 1842,
      "Ġcommun": 1843,
      "Ġfive": 1844,
      "Ġdenn": 1845,
      "Ã¼nf": 1846,
      "asch": 1847,
      "Ġvideo": 1848,
      "gh": 1849,
      "ized": 1850,
      "Ġidee": 1851,
      "amm": 1852,
      "why": 1853,
      "Ġur": 1854,
      "ischer": 1855,
      "Ġbring": 1856,
      "ime": 1857,
      "annt": 1858,
      "Ġexp": 1859,
      "Ġfragen": 1860,
      "Ġbedeute": 1861,
      "ific": 1862,
      "Ġdazu": 1863,
      "Ġdaran": 1864,
      "Ã¤hrend": 1865,
      "jetzt": 1866,
      "ude": 1867,
      "Ġever": 1868,
      "Ġarch": 1869,
      "ci": 1870,
      "ernen": 1871,
      "Ġaway": 1872,
      "Ġmoney": 1873,
      "arch": 1874,
      "Ġanf": 1875,
      "Ġmet": 1876,
      "Ġcare": 1877,
      "Ġpretty": 1878,
      "Ġbekommen": 1879,
      "led": 1880,
      "Ġvir": 1881,
      "affen": 1882,
      "Ġirgend": 1883,
      "Ġgemein": 1884,
      "Ġcam": 1885,
      "Ġless": 1886,
      "Ġbed": 1887,
      "Ġungl": 1888,
      "set": 1889,
      "Ġpop": 1890,
      "ives": 1891,
      "Ġbeste": 1892,
      "Ġzwischen": 1893,
      "schl": 1894,
      "Ġlooking": 1895,
      "Ġsimple": 1896,
      "abe": 1897,
      "Ġcor": 1898,
      "Ġinformation": 1899,
      "ograph": 1900,
      "mein": 1901,
      "Ġfut": 1902,
      "gehen": 1903,
      "Ġhapp": 1904,
      "Ġafrik": 1905,
      "Ġmust": 1906,
      "ms": 1907,
      "geben": 1908,
      "licher": 1909,
      "iere": 1910,
      "lassen": 1911,
      "of": 1912,
      "ween": 1913,
      "ĠwÃ¼rden": 1914,
      "Ġposs": 1915,
      "Ġstop": 1916,
      "uft": 1917,
      "zeug": 1918,
      "Ġsagt": 1919,
      "Ġbeginn": 1920,
      "kun": 1921,
      "selves": 1922,
      "Ġglobal": 1923,
      "ote": 1924,
      "Ã¤ren": 1925,
      "rat": 1926,
      "Ġprogram": 1927,
      "mÃ¶": 1928,
      "Ġeverything": 1929,
      "Ġsuch": 1930,
      "Ġetwa": 1931,
      "Ġkonnte": 1932,
      "Ġcap": 1933,
      "Ġabsol": 1934,
      "ift": 1935,
      "agt": 1936,
      "Ġeng": 1937,
      "Ġreas": 1938,
      "Ġrest": 1939,
      "Ġfal": 1940,
      "Ġunterschied": 1941,
      "fall": 1942,
      "pos": 1943,
      "Ġstuff": 1944,
      "Ġfunktioniert": 1945,
      "Ġdi": 1946,
      "Ġdaten": 1947,
      "llt": 1948,
      "Ġteach": 1949,
      "Ġvielen": 1950,
      "Ġinteresting": 1951,
      "Ġair": 1952,
      "Ġbil": 1953,
      "Ġopen": 1954,
      "Ġpubl": 1955,
      "Ġcle": 1956,
      "row": 1957,
      "Ã¶t": 1958,
      "ember": 1959,
      "Ġbad": 1960,
      "Ġstra": 1961,
      "ron": 1962,
      "Ġdire": 1963,
      "ĠhÃ¶": 1964,
      "Ã¤lt": 1965,
      "Ġsym": 1966,
      "conom": 1967,
      "Ġbelieve": 1968,
      "Ġwunder": 1969,
      "dern": 1970,
      "elle": 1971,
      "com": 1972,
      "denn": 1973,
      "Ġcomes": 1974,
      "Ã¤ng": 1975,
      "Ġsing": 1976,
      "Ġverstehen": 1977,
      "cke": 1978,
      "ilt": 1979,
      "Ġbedeutet": 1980,
      "ja": 1981,
      "Ġbeaut": 1982,
      "Ġmeans": 1983,
      "Ġchina": 1984,
      "Ġresp": 1985,
      "ional": 1986,
      "Ġmeinem": 1987,
      "velop": 1988,
      "oh": 1989,
      "zlich": 1990,
      "enden": 1991,
      "Ġhar": 1992,
      "Ġleft": 1993,
      "Ġengl": 1994,
      "Ġihrer": 1995,
      "Ġbetween": 1996,
      "unde": 1997,
      "Ġtook": 1998,
      "Ġspra": 1999,
      "press": 2000,
      "ail": 2001,
      "jed": 2002,
      "Ġmath": 2003,
      "Ġvoll": 2004,
      "Ġang": 2005,
      "rop": 2006,
      "Ġsound": 2007,
      "Ġris": 2008,
      "Ġmeinen": 2009,
      "Ġafrica": 2010,
      "mand": 2011,
      "gesch": 2012,
      "Ġkeinen": 2013,
      "Ġsign": 2014,
      "Ġhealth": 2015,
      "Ġelect": 2016,
      "Ġwonder": 2017,
      "Ġmot": 2018,
      "Ġbab": 2019,
      "Ġgoes": 2020,
      "Ġdollars": 2021,
      "Ġeconom": 2022,
      "Ġsoz": 2023,
      "Ġhappens": 2024,
      "gs": 2025,
      "Ġwalk": 2026,
      "Ġpicture": 2027,
      "Ġmaterial": 2028,
      "ls": 2029,
      "Ġfas": 2030,
      "ĠfÃ¼nf": 2031,
      "raft": 2032,
      "Ġje": 2033,
      "Ġdachte": 2034,
      "ike": 2035,
      "Ġtak": 2036,
      "Ã¼h": 2037,
      "Ġunder": 2038,
      "Ġfood": 2039,
      "Ġpartic": 2040,
      "Ġhist": 2041,
      "Ġricht": 2042,
      "Ġmeisten": 2043,
      "ness": 2044,
      "gung": 2045,
      "lo": 2046,
      "ane": 2047,
      "ĠkÃ¶r": 2048,
      "Ġkids": 2049,
      "ennt": 2050,
      "Ġworking": 2051,
      "scheinlich": 2052,
      "Ġprobab": 2053,
      "Ġversuch": 2054,
      "ker": 2055,
      "Ġdevelop": 2056,
      "Ġanswer": 2057,
      "Ġfuture": 2058,
      "Ġtest": 2059,
      "Ġgute": 2060,
      "Ġlernen": 2061,
      "Ã¤us": 2062,
      "Ġrichtig": 2063,
      "Ġbesser": 2064,
      "kunft": 2065,
      "Ġable": 2066,
      "Ġpos": 2067,
      "Ġarbeiten": 2068,
      "Ġelse": 2069,
      "sc": 2070,
      "ates": 2071,
      "Ġ18": 2072,
      "ahren": 2073,
      "Ġwomen": 2074,
      "Ġhome": 2075,
      "Ġspace": 2076,
      "Ġhoch": 2077,
      "Ġletzten": 2078,
      "Ġeigentlich": 2079,
      "Ġtot": 2080,
      "Ġwind": 2081,
      "Ġersten": 2082,
      "denken": 2083,
      "Ġhead": 2084,
      "Ġkomple": 2085,
      "Ġtimes": 2086,
      "any": 2087,
      "Ġeas": 2088,
      "Ġsw": 2089,
      "Ġamaz": 2090,
      "Ġamerik": 2091,
      "Ġlooks": 2092,
      "Ġweniger": 2093,
      "Ġkrank": 2094,
      "ĠheiÃŁt": 2095,
      "richt": 2096,
      "isen": 2097,
      "Ġerw": 2098,
      "some": 2099,
      "Ġdoch": 2100,
      "Ġcontro": 2101,
      "Ġbillion": 2102,
      "mon": 2103,
      "omet": 2104,
      "Ġyes": 2105,
      "Ã¤ter": 2106,
      "Ġna": 2107,
      "Ġbew": 2108,
      "enten": 2109,
      "ktur": 2110,
      "Ġgesehen": 2111,
      "Ġenough": 2112,
      "Ġcountry": 2113,
      "Ġfrauen": 2114,
      "Ã¤ndern": 2115,
      "fÃ¼hl": 2116,
      "fort": 2117,
      "Ġunglaub": 2118,
      "Ġ12": 2119,
      "rum": 2120,
      "Ġname": 2121,
      "Ġpap": 2122,
      "ott": 2123,
      "urs": 2124,
      "Ġtechnologie": 2125,
      "Ġdanke": 2126,
      "legen": 2127,
      "Ġlos": 2128,
      "ĠkÃ¶nnten": 2129,
      "Ġconne": 2130,
      "lung": 2131,
      "Ġgest": 2132,
      "Ġplanet": 2133,
      "line": 2134,
      "Ġversch": 2135,
      "Ġessen": 2136,
      "Ġstru": 2137,
      "nung": 2138,
      "Ġlab": 2139,
      "Ġphot": 2140,
      "mar": 2141,
      "Ġopt": 2142,
      "ories": 2143,
      "get": 2144,
      "Ġende": 2145,
      "duc": 2146,
      "voll": 2147,
      "Ġtyp": 2148,
      "Ġbuch": 2149,
      "Ġcol": 2150,
      "then": 2151,
      "ckt": 2152,
      "dition": 2153,
      "Ġhund": 2154,
      "Ġkar": 2155,
      "ulation": 2156,
      "Ġkleine": 2157,
      "Ġbro": 2158,
      "els": 2159,
      "Ġbecome": 2160,
      "iting": 2161,
      "itten": 2162,
      "Ġread": 2163,
      "Ġraum": 2164,
      "kr": 2165,
      "Ġwa": 2166,
      "Ġmann": 2167,
      "ief": 2168,
      "91": 2169,
      "cer": 2170,
      "Ġmenge": 2171,
      "Ġglauben": 2172,
      "yn": 2173,
      "Ġgetting": 2174,
      "Ġtrying": 2175,
      "Ġprobably": 2176,
      "ogen": 2177,
      "sicht": 2178,
      "Ġoffen": 2179,
      "Ġanything": 2180,
      "tschaft": 2181,
      "Ġsocial": 2182,
      "93": 2183,
      "Ġbar": 2184,
      "Ġzukunft": 2185,
      "Ġprin": 2186,
      "Ġdarauf": 2187,
      "gefÃ¤hr": 2188,
      "usst": 2189,
      "achsen": 2190,
      "weil": 2191,
      "reiben": 2192,
      "ĠauÃŁer": 2193,
      "essen": 2194,
      "ments": 2195,
      "sych": 2196,
      "Ġearth": 2197,
      "Ġcou": 2198,
      "Ġcur": 2199,
      "Ġche": 2200,
      "Ġihm": 2201,
      "plic": 2202,
      "Ġexperiment": 2203,
      "vielen": 2204,
      "Ġprocess": 2205,
      "Ġthinking": 2206,
      "Ġwenig": 2207,
      "vir": 2208,
      "Ġarm": 2209,
      "Ġhoff": 2210,
      "Ġhalf": 2211,
      "ĠmÃ¶glichkeit": 2212,
      "Ġeben": 2213,
      "Ġret": 2214,
      "Ġimp": 2215,
      "ertain": 2216,
      "unter": 2217,
      "Ġpie": 2218,
      "iges": 2219,
      "Ġisn": 2220,
      "Ġble": 2221,
      "Ġzahl": 2222,
      "Ġnehmen": 2223,
      "Ġtalking": 2224,
      "ouse": 2225,
      "ustr": 2226,
      "Ġdabei": 2227,
      "Ġfrau": 2228,
      "Ġextre": 2229,
      "Ġcoming": 2230,
      "Ġrad": 2231,
      "Ġwrong": 2232,
      "Ġhope": 2233,
      "Ġyo": 2234,
      "Ġseite": 2235,
      "achen": 2236,
      "Ġverk": 2237,
      "ister": 2238,
      "dieses": 2239,
      "Ġmilliar": 2240,
      "Ġey": 2241,
      "Ġnothing": 2242,
      "Ġpres": 2243,
      "ior": 2244,
      "Ġseem": 2245,
      "Ġaugen": 2246,
      "Ġschwier": 2247,
      "Ġmakes": 2248,
      "Ġcomplete": 2249,
      "ivid": 2250,
      "Ġstellen": 2251,
      "vern": 2252,
      "Ġwithout": 2253,
      "Ġnormal": 2254,
      "meine": 2255,
      "Ġmiss": 2256,
      "ately": 2257,
      "Ġkop": 2258,
      "Ġtop": 2259,
      "itive": 2260,
      "app": 2261,
      "Ġkill": 2262,
      "hrer": 2263,
      "gte": 2264,
      "ĠwÃ¤hrend": 2265,
      "Ġsex": 2266,
      "cture": 2267,
      "Ġfrien": 2268,
      "Ġsays": 2269,
      "Ġscience": 2270,
      "Ġlicht": 2271,
      "ierten": 2272,
      "Ġbuilding": 2273,
      "Ġtem": 2274,
      "emat": 2275,
      "dent": 2276,
      "Ġtat": 2277,
      "ald": 2278,
      "Ã¤ft": 2279,
      "Ġself": 2280,
      "Ġmonth": 2281,
      "Ġliebe": 2282,
      "every": 2283,
      "ator": 2284,
      "stoff": 2285,
      "Ġgesagt": 2286,
      "ying": 2287,
      "Ġdist": 2288,
      "Ġinno": 2289,
      "ĠgrÃ¼n": 2290,
      "Ġcreate": 2291,
      "Ġside": 2292,
      "Ã¤um": 2293,
      "Ġfort": 2294,
      "Ġchr": 2295,
      "halt": 2296,
      "Ġguy": 2297,
      "ismus": 2298,
      "Ġkleinen": 2299,
      "Ġenergy": 2300,
      "fÃ¼r": 2301,
      "Ġsaw": 2302,
      "Ġwahrscheinlich": 2303,
      "Ġantwort": 2304,
      "alle": 2305,
      "Ġmaybe": 2306,
      "Ġeur": 2307,
      "Ġpsych": 2308,
      "Ġincred": 2309,
      "ĠÃ¼": 2310,
      "Ġsor": 2311,
      "red": 2312,
      "Ġkrie": 2313,
      "Ġwee": 2314,
      "ionen": 2315,
      "ĠungefÃ¤hr": 2316,
      "aces": 2317,
      "Ġ40": 2318,
      "Ġarchite": 2319,
      "enz": 2320,
      "Ġeduc": 2321,
      "Ġyeah": 2322,
      "tes": 2323,
      "Ġfing": 2324,
      "Ġganzen": 2325,
      "Ġjeden": 2326,
      "Ġenergie": 2327,
      "ĠkÃ¶rper": 2328,
      "Ġyor": 2329,
      "ktiv": 2330,
      "Ġinside": 2331,
      "Ġterr": 2332,
      "tem": 2333,
      "Ġ25": 2334,
      "Ġbusiness": 2335,
      "Ġbody": 2336,
      "Ġspielen": 2337,
      "Ġoper": 2338,
      "Ġseit": 2339,
      "Ġanders": 2340,
      "Ġkun": 2341,
      "Ġerkl": 2342,
      "iful": 2343,
      "Ġcost": 2344,
      "Ġkurz": 2345,
      "Ġyoung": 2346,
      "oder": 2347,
      "Ġpain": 2348,
      "Ġface": 2349,
      "Ġtrue": 2350,
      "Ġflie": 2351,
      "ĠgroÃŁen": 2352,
      "Ġkeep": 2353,
      "haf": 2354,
      "Ġunseren": 2355,
      "Ġgrou": 2356,
      "Ġsense": 2357,
      "aps": 2358,
      "Ġinsp": 2359,
      "Ġseen": 2360,
      "imes": 2361,
      "Ġexist": 2362,
      "Ġspec": 2363,
      "cus": 2364,
      "go": 2365,
      "ged": 2366,
      "Ġsix": 2367,
      "Ġhil": 2368,
      "lieÃŁ": 2369,
      "Ġhinter": 2370,
      "ape": 2371,
      "Ġbegann": 2372,
      "Ġversuchen": 2373,
      "Ġmaking": 2374,
      "ta": 2375,
      "Ġcity": 2376,
      "Ġunivers": 2377,
      "Ġinnov": 2378,
      "inter": 2379,
      "Ġgod": 2380,
      "isches": 2381,
      "Ġatt": 2382,
      "ernt": 2383,
      "nah": 2384,
      "Ġanderes": 2385,
      "Ġgesund": 2386,
      "Ġmusik": 2387,
      "Ġkunst": 2388,
      "fte": 2389,
      "Ġhour": 2390,
      "Ġverd": 2391,
      "Ġneur": 2392,
      "Ġamazing": 2393,
      "Ġnennen": 2394,
      "Ġcal": 2395,
      "Ġlink": 2396,
      "ĠspÃ¤ter": 2397,
      "cr": 2398,
      "vid": 2399,
      "asse": 2400,
      "Ġfig": 2401,
      "Ġsta": 2402,
      "Ġgovern": 2403,
      "Ġzeigt": 2404,
      "Ġworks": 2405,
      "ultur": 2406,
      "Ġerfol": 2407,
      "tt": 2408,
      "Ġgir": 2409,
      "Ġweise": 2410,
      "ulture": 2411,
      "Ġwes": 2412,
      "Ġfot": 2413,
      "Ġlater": 2414,
      "Ġdenen": 2415,
      "Ġusing": 2416,
      "system": 2417,
      "Ġmathemat": 2418,
      "wissen": 2419,
      "Ġsin": 2420,
      "zeich": 2421,
      "Ġentsche": 2422,
      "Ġbringen": 2423,
      "Ġtrain": 2424,
      "Ġfant": 2425,
      "Ġdefin": 2426,
      "Ġroom": 2427,
      "Ġbasically": 2428,
      "Ġrelig": 2429,
      "ware": 2430,
      "stÃ¤nd": 2431,
      "Ġpot": 2432,
      "Ġcase": 2433,
      "Ġster": 2434,
      "cover": 2435,
      "vielleicht": 2436,
      "ĠerzÃ¤hlen": 2437,
      "Ġbeautiful": 2438,
      "Ġsah": 2439,
      "Ġequ": 2440,
      "Ġeuch": 2441,
      "Ġschwer": 2442,
      "Ġhear": 2443,
      "Ġmutter": 2444,
      "chmal": 2445,
      "Ġval": 2446,
      "Ġyet": 2447,
      "ices": 2448,
      "Ġbiolog": 2449,
      "Ġinvest": 2450,
      "Ġline": 2451,
      "Ġbisschen": 2452,
      "Ġchem": 2453,
      "Ġmusic": 2454,
      "Ã¤dchen": 2455,
      "kten": 2456,
      "ches": 2457,
      "einander": 2458,
      "schr": 2459,
      "Ġexact": 2460,
      "ĠgroÃŁart": 2461,
      "Ġemot": 2462,
      "Ġsuper": 2463,
      "chs": 2464,
      "iele": 2465,
      "Ġschr": 2466,
      "Ġteam": 2467,
      "zahl": 2468,
      "Ġtold": 2469,
      "ants": 2470,
      "Ġliving": 2471,
      "Ġentde": 2472,
      "ondern": 2473,
      "Ã¤l": 2474,
      "vious": 2475,
      "ente": 2476,
      "Ġwasn": 2477,
      "Ġschul": 2478,
      "iff": 2479,
      "adt": 2480,
      "upt": 2481,
      "pre": 2482,
      "ality": 2483,
      "Ġreason": 2484,
      "Ġyork": 2485,
      "Ġdan": 2486,
      "Ġhol": 2487,
      "utes": 2488,
      "ention": 2489,
      "racht": 2490,
      "Ġcho": 2491,
      "spr": 2492,
      "hol": 2493,
      "ply": 2494,
      "Ġsuc": 2495,
      "Ġproblems": 2496,
      "Ġfamily": 2497,
      "Ġasked": 2498,
      "met": 2499,
      "uns": 2500,
      "Ġhy": 2501,
      "Ġeins": 2502,
      "ily": 2503,
      "Ġerinn": 2504,
      "Ġlevel": 2505,
      "mittel": 2506,
      "ĠÃ¶ff": 2507,
      "Ġsou": 2508,
      "Ġdir": 2509,
      "Ġev": 2510,
      "ots": 2511,
      "Ġern": 2512,
      "Ġheard": 2513,
      "ĠÃ¼berall": 2514,
      "Ġways": 2515,
      "Ġklar": 2516,
      "gal": 2517,
      "schauen": 2518,
      "hand": 2519,
      "liches": 2520,
      "bel": 2521,
      "Ġort": 2522,
      "Ġcool": 2523,
      "Ġindivid": 2524,
      "ĠgehÃ¶rt": 2525,
      "tellt": 2526,
      "Ġeing": 2527,
      "uring": 2528,
      "Ġextra": 2529,
      "ization": 2530,
      "Ġeverybody": 2531,
      "zess": 2532,
      "Ġwatch": 2533,
      "Ã¤hl": 2534,
      "Ġnews": 2535,
      "Ġgreen": 2536,
      "not": 2537,
      "ready": 2538,
      "Ġhappening": 2539,
      "Ġdays": 2540,
      "Ġlangu": 2541,
      "Ġcountries": 2542,
      "fect": 2543,
      "nat": 2544,
      "Ġwus": 2545,
      "Ġlin": 2546,
      "Ã¶l": 2547,
      "Ġihrem": 2548,
      "stellung": 2549,
      "Ġacr": 2550,
      "Ġelekt": 2551,
      "Ġafrika": 2552,
      "Ġmilliarden": 2553,
      "cle": 2554,
      "asst": 2555,
      "itte": 2556,
      "ĠnÃ¤": 2557,
      "Ã¤m": 2558,
      "Ġlives": 2559,
      "ared": 2560,
      "Ġscient": 2561,
      "doch": 2562,
      "Ġeffect": 2563,
      "viron": 2564,
      "hau": 2565,
      "leben": 2566,
      "mals": 2567,
      "Ġjedes": 2568,
      "Ġfand": 2569,
      "Ġfest": 2570,
      "oman": 2571,
      "Ã¶hn": 2572,
      "Ġexperience": 2573,
      "less": 2574,
      "Ġboth": 2575,
      "Ġintell": 2576,
      "Ġideas": 2577,
      "by": 2578,
      "gleich": 2579,
      "min": 2580,
      "ash": 2581,
      "Ġkennen": 2582,
      "str": 2583,
      "Ġvar": 2584,
      "Ġenviron": 2585,
      "fra": 2586,
      "Ġnutzen": 2587,
      "Ġstim": 2588,
      "Ġlea": 2589,
      "Ġprobleme": 2590,
      "Ġsitu": 2591,
      "ometimes": 2592,
      "aur": 2593,
      "ever": 2594,
      "fol": 2595,
      "Ġthird": 2596,
      "iet": 2597,
      "itz": 2598,
      "Ġange": 2599,
      "Ġlange": 2600,
      "Ġiss": 2601,
      "Ġalt": 2602,
      "Ġalmost": 2603,
      "ĠhÃ¤tte": 2604,
      "Ġmatter": 2605,
      "Ġdig": 2606,
      "Ġhor": 2607,
      "Ġerde": 2608,
      "Ġschaffen": 2609,
      "Ġmachte": 2610,
      "Ġcouple": 2611,
      "Ġcompletely": 2612,
      "cur": 2613,
      "Ġmem": 2614,
      "Ġfull": 2615,
      "Ġrevolution": 2616,
      "Ġwelche": 2617,
      "Ġhistory": 2618,
      "aden": 2619,
      "dru": 2620,
      "hin": 2621,
      "Ġnah": 2622,
      "ames": 2623,
      "Ġbraucht": 2624,
      "Ġbegan": 2625,
      "Ġeigenen": 2626,
      "Ġdau": 2627,
      "Ġsoc": 2628,
      "Ġexc": 2629,
      "Ġherz": 2630,
      "Ġextrem": 2631,
      "Ġalready": 2632,
      "Ġprojekt": 2633,
      "Ã¼nst": 2634,
      "Ġwohl": 2635,
      "Ġsingle": 2636,
      "Ġgesundheit": 2637,
      "Ġmass": 2638,
      "kelt": 2639,
      "Ġneu": 2640,
      "Ġdev": 2641,
      "people": 2642,
      "zwe": 2643,
      "ene": 2644,
      "ages": 2645,
      "Ġgrup": 2646,
      "Ġgenug": 2647,
      "Ġacross": 2648,
      "Ġsure": 2649,
      "ĠmÃ¤n": 2650,
      "Ġtele": 2651,
      "Ġsagten": 2652,
      "Ġpossible": 2653,
      "Ġchallen": 2654,
      "ahrung": 2655,
      "Ġquick": 2656,
      "Ġverschiedene": 2657,
      "Ġexactly": 2658,
      "jo": 2659,
      "kon": 2660,
      "Ġmid": 2661,
      "Ġevolution": 2662,
      "Ġarten": 2663,
      "Ġsteht": 2664,
      "Ġplane": 2665,
      "hip": 2666,
      "ield": 2667,
      "Ġcertain": 2668,
      "schn": 2669,
      "Ġindia": 2670,
      "bes": 2671,
      "just": 2672,
      "Ġ%": 2673,
      "Ġred": 2674,
      "Ġschauen": 2675,
      "Ġherum": 2676,
      "Ġgott": 2677,
      "Ġliegt": 2678,
      "Ġgerne": 2679,
      "Ġhappy": 2680,
      "Ġaff": 2681,
      "Ġbauen": 2682,
      "Ġfu": 2683,
      "ala": 2684,
      "Ġallen": 2685,
      "Ġgeschichten": 2686,
      "Ġentwick": 2687,
      "Ã¤higkeit": 2688,
      "ĠsÃ¼": 2689,
      "Ġkne": 2690,
      "ĠlÃ¶": 2691,
      "erein": 2692,
      "Ġmole": 2693,
      "Ġwords": 2694,
      "schaften": 2695,
      "Ġclass": 2696,
      "Ġuniverse": 2697,
      "Ġremember": 2698,
      "Ġmess": 2699,
      "Ġoce": 2700,
      "iving": 2701,
      "dieser": 2702,
      "Ġkontro": 2703,
      "Ġniemand": 2704,
      "reichen": 2705,
      "Ġcontrol": 2706,
      "Ġfly": 2707,
      "ush": 2708,
      "Ġjun": 2709,
      "Ġrecht": 2710,
      "Ġaller": 2711,
      "Ġheart": 2712,
      "Ġmachine": 2713,
      "ples": 2714,
      "Ġideen": 2715,
      "keln": 2716,
      "Ġdich": 2717,
      "Ġgesell": 2718,
      "Ġunserem": 2719,
      "ton": 2720,
      "Ġwon": 2721,
      "Ġmic": 2722,
      "lichkeit": 2723,
      "Ġries": 2724,
      "ders": 2725,
      "Ġarg": 2726,
      "ousand": 2727,
      "Ġbetra": 2728,
      "Ġproduct": 2729,
      "air": 2730,
      "Ġsondern": 2731,
      "osp": 2732,
      "Ġcancer": 2733,
      "ĠbÃ¼": 2734,
      "Ġfund": 2735,
      "Ġint": 2736,
      "Ġindien": 2737,
      "Ġbuilt": 2738,
      "ĠverÃ¤ndern": 2739,
      "ih": 2740,
      "stru": 2741,
      "Ġvo": 2742,
      "Ġzer": 2743,
      "Ġmeet": 2744,
      "Ġguys": 2745,
      "zuf": 2746,
      "ential": 2747,
      "Ġ11": 2748,
      "Ġhalten": 2749,
      "Ġeducation": 2750,
      "Ġfantast": 2751,
      "Ġner": 2752,
      "osph": 2753,
      "Ġcra": 2754,
      "ĠkÃ¼": 2755,
      "Ġbeim": 2756,
      "ollow": 2757,
      "dle": 2758,
      "side": 2759,
      "Ġhiv": 2760,
      "ury": 2761,
      "ided": 2762,
      "Ġnature": 2763,
      "ired": 2764,
      "Ġeinzel": 2765,
      "Ġorganis": 2766,
      "aw": 2767,
      "like": 2768,
      "ende": 2769,
      "chter": 2770,
      "Ġdel": 2771,
      "Ġnational": 2772,
      "Ġrese": 2773,
      "ÃŁe": 2774,
      "Ġfront": 2775,
      "Ġdarum": 2776,
      "Ġdna": 2777,
      "Ġcir": 2778,
      "ental": 2779,
      "Ġreden": 2780,
      "Ġusa": 2781,
      "Ġmusste": 2782,
      "Ġspeak": 2783,
      "Ġstates": 2784,
      "work": 2785,
      "Ġcontin": 2786,
      "Ġerfolg": 2787,
      "Ġenvironment": 2788,
      "nach": 2789,
      "ral": 2790,
      "Ġthousand": 2791,
      "ested": 2792,
      "Ġstu": 2793,
      "Ġschein": 2794,
      "ibly": 2795,
      "Ġbesonder": 2796,
      "Ġbenutzen": 2797,
      "Ġ60": 2798,
      "haupt": 2799,
      "Ġple": 2800,
      "alten": 2801,
      "ateg": 2802,
      "forder": 2803,
      "Ġlarge": 2804,
      "Ġamerikan": 2805,
      "Ġident": 2806,
      "welt": 2807,
      "immer": 2808,
      "ogn": 2809,
      "Ġcells": 2810,
      "bed": 2811,
      "uh": 2812,
      "ĠhÃ¶ren": 2813,
      "Ġoben": 2814,
      "Ġword": 2815,
      "ivity": 2816,
      "Ġgets": 2817,
      "Ġparticular": 2818,
      "aum": 2819,
      "win": 2820,
      "zus": 2821,
      "inen": 2822,
      "Ġball": 2823,
      "llig": 2824,
      "Ġverr": 2825,
      "Ã¤che": 2826,
      "Ġbitte": 2827,
      "Ġcolle": 2828,
      "aun": 2829,
      "Ġhuge": 2830,
      "Ġpay": 2831,
      "Ġkor": 2832,
      "Ġschule": 2833,
      "gangen": 2834,
      "Ġminuten": 2835,
      "Ġmodel": 2836,
      "Ġmonths": 2837,
      "fic": 2838,
      "Ġtut": 2839,
      "Ġage": 2840,
      "orm": 2841,
      "Ġliter": 2842,
      "istan": 2843,
      "Ġmyself": 2844,
      "Ġstehen": 2845,
      "Ġlooked": 2846,
      "av": 2847,
      "Ġtas": 2848,
      "Ġmother": 2849,
      "atur": 2850,
      "Ġvol": 2851,
      "utzt": 2852,
      "Ġitself": 2853,
      "Ġflug": 2854,
      "nicht": 2855,
      "ĠmÃ¤dchen": 2856,
      "Ġbeha": 2857,
      "Ġbecame": 2858,
      "Ġhelfen": 2859,
      "Ġbilder": 2860,
      "Ġresearch": 2861,
      "Ġhot": 2862,
      "Ġfrei": 2863,
      "Ġfollow": 2864,
      "Ġoft": 2865,
      "Ġsechs": 2866,
      "Ġstories": 2867,
      "imens": 2868,
      "Ġobject": 2869,
      "Ġabsolute": 2870,
      "Ġpiece": 2871,
      "can": 2872,
      "kre": 2873,
      "Ġhouse": 2874,
      "Ġpunkt": 2875,
      "ĠlÃ¶s": 2876,
      "ikum": 2877,
      "zept": 2878,
      "Ġbereits": 2879,
      "Ġunglaublich": 2880,
      "Ġsuccess": 2881,
      "fle": 2882,
      "unch": 2883,
      "Ġstadt": 2884,
      "imate": 2885,
      "Ġwithin": 2886,
      "Ã¼cken": 2887,
      "Ġappro": 2888,
      "cing": 2889,
      "son": 2890,
      "Ġsens": 2891,
      "ĠhÃ¤n": 2892,
      "stra": 2893,
      "Ġrepr": 2894,
      "Ġrich": 2895,
      "Ġwert": 2896,
      "ahn": 2897,
      "enne": 2898,
      "Ġtru": 2899,
      "Ġentire": 2900,
      "Ġuniversum": 2901,
      "ĠÃ¤hn": 2902,
      "Ġkopf": 2903,
      "bra": 2904,
      "iqu": 2905,
      "ped": 2906,
      "Ġtreat": 2907,
      "Ġsinn": 2908,
      "Ġinner": 2909,
      "Ġkap": 2910,
      "Ġinstit": 2911,
      "Ġbau": 2912,
      "Ġfle": 2913,
      "Ġkn": 2914,
      "Ġlisten": 2915,
      "Ġgesam": 2916,
      "iker": 2917,
      "kennen": 2918,
      "Ġsyn": 2919,
      "Ġdiscover": 2920,
      "gress": 2921,
      "gn": 2922,
      "hung": 2923,
      "Ġaud": 2924,
      "Ġsand": 2925,
      "Ġmer": 2926,
      "Ġtradition": 2927,
      "Ġemp": 2928,
      "Ġturns": 2929,
      "gang": 2930,
      "och": 2931,
      "Ġcann": 2932,
      "Ġbel": 2933,
      "Ġbetr": 2934,
      "Ġverhalten": 2935,
      "Ġrot": 2936,
      "heim": 2937,
      "Ġorig": 2938,
      "Ġgenet": 2939,
      "Ġseiner": 2940,
      "Ġphil": 2941,
      "Ġgleiche": 2942,
      "ĠnÃ¤chsten": 2943,
      "Ġbewusst": 2944,
      "Ġlabor": 2945,
      "zung": 2946,
      "Ġill": 2947,
      "igung": 2948,
      "ĠÃ¼berhaupt": 2949,
      "Ġlearned": 2950,
      "Ġinteressant": 2951,
      "Ġbreak": 2952,
      "50": 2953,
      "bare": 2954,
      "sein": 2955,
      "Ġwoman": 2956,
      "Ġmasch": 2957,
      "iety": 2958,
      "Ġoil": 2959,
      "Ġtool": 2960,
      "ommt": 2961,
      "ctor": 2962,
      "Ġcomplex": 2963,
      "ĠnÃ¤chste": 2964,
      "Ġengine": 2965,
      "Ġfigure": 2966,
      "Ġlanguage": 2967,
      "Ġgame": 2968,
      "ingt": 2969,
      "Ġpriv": 2970,
      "Ġchanged": 2971,
      "Ġwonderful": 2972,
      "schnitt": 2973,
      "ex": 2974,
      "ym": 2975,
      "Ġoften": 2976,
      "ument": 2977,
      "ufen": 2978,
      "Ġed": 2979,
      "iti": 2980,
      "ident": 2981,
      "Ġdecided": 2982,
      "falls": 2983,
      "druck": 2984,
      "mut": 2985,
      "Ġsau": 2986,
      "ark": 2987,
      "istic": 2988,
      "Ġseinen": 2989,
      "Ġminutes": 2990,
      "Ġbaby": 2991,
      "Ġsoft": 2992,
      "Ġerk": 2993,
      "Ġonce": 2994,
      "Ġaufg": 2995,
      "Ġfalsch": 2996,
      "Ġcut": 2997,
      "Ġhaving": 2998,
      "Ġschre": 2999,
      "Ġkonnten": 3000,
      "gebnis": 3001,
      "Ġnatural": 3002,
      "Ġmoral": 3003,
      "Ġimagine": 3004,
      "Ġclear": 3005,
      "Ġplaneten": 3006,
      "aben": 3007,
      "bild": 3008,
      "Ġnight": 3009,
      "gende": 3010,
      "beite": 3011,
      "Ġneuen": 3012,
      "Ġspre": 3013,
      "Ġbrauch": 3014,
      "Ġzweite": 3015,
      "Ġjede": 3016,
      "Ġobvious": 3017,
      "Ġteilen": 3018,
      "Ġfamilie": 3019,
      "Ġlaw": 3020,
      "Ġamerica": 3021,
      "Ġentwickelt": 3022,
      "vis": 3023,
      "ination": 3024,
      "Ġsil": 3025,
      "Ġwirtschaft": 3026,
      "Ġjour": 3027,
      "ney": 3028,
      "Ġblack": 3029,
      "Ġpred": 3030,
      "Ġkosten": 3031,
      "Ġnamens": 3032,
      "fel": 3033,
      "ling": 3034,
      "Ġton": 3035,
      "Ġsat": 3036,
      "Ġsqu": 3037,
      "Ġdise": 3038,
      "Ġmult": 3039,
      "Ġanal": 3040,
      "ows": 3041,
      "Ġregel": 3042,
      "indung": 3043,
      "Ġlots": 3044,
      "por": 3045,
      "xy": 3046,
      "ases": 3047,
      "Ġsaying": 3048,
      "Ġtransform": 3049,
      "Ġsituation": 3050,
      "hle": 3051,
      "ians": 3052,
      "po": 3053,
      "Ġach": 3054,
      "ones": 3055,
      "Ġvater": 3056,
      "Ġseven": 3057,
      "iste": 3058,
      "ienen": 3059,
      "ogle": 3060,
      "Ġangst": 3061,
      "Ġkomplex": 3062,
      "Ġinspir": 3063,
      "come": 3064,
      "Ġbeein": 3065,
      "Ġerl": 3066,
      "Ġvorstellen": 3067,
      "Ġnetz": 3068,
      "Ġprofess": 3069,
      "ging": 3070,
      "richten": 3071,
      "Ġak": 3072,
      "esten": 3073,
      "ars": 3074,
      "icken": 3075,
      "Ġleuten": 3076,
      "Ġfehl": 3077,
      "acter": 3078,
      "Ġindust": 3079,
      "Ġdifference": 3080,
      "Ġtw": 3081,
      "achten": 3082,
      "Ġunt": 3083,
      "ager": 3084,
      "anken": 3085,
      "Ġourselves": 3086,
      "spiel": 3087,
      "Ġeveryone": 3088,
      "Ġfocus": 3089,
      "Ġquestions": 3090,
      "Ġbehind": 3091,
      "Ġeasy": 3092,
      "Ġhours": 3093,
      "kÃ¶n": 3094,
      "mel": 3095,
      "wend": 3096,
      "imin": 3097,
      "Ġonline": 3098,
      "aher": 3099,
      "Ġshort": 3100,
      "Ġshare": 3101,
      "Ġsage": 3102,
      "Ġunternehmen": 3103,
      "Ġroboter": 3104,
      "Ġamerican": 3105,
      "Ġdiag": 3106,
      "may": 3107,
      "ĠÂ": 3108,
      "Ġfree": 3109,
      "Ġbemer": 3110,
      "Ġbevor": 3111,
      "Ġsei": 3112,
      "Ġspr": 3113,
      "heiten": 3114,
      "ĠverÃ¤ndert": 3115,
      "Ġeyes": 3116,
      "ihr": 3117,
      "more": 3118,
      "uld": 3119,
      "chan": 3120,
      "Ġwand": 3121,
      "Ġlim": 3122,
      "omes": 3123,
      "Ġerh": 3124,
      "stead": 3125,
      "Ġentf": 3126,
      "Ġkinds": 3127,
      "Ġdiffic": 3128,
      "ĠgebÃ¤": 3129,
      "Ġcreated": 3130,
      "Ġsouth": 3131,
      "Ġdifficult": 3132,
      "put": 3133,
      "era": 3134,
      "Ġdor": 3135,
      "Ġwest": 3136,
      "anzen": 3137,
      "Ġpen": 3138,
      "Ġ16": 3139,
      "ability": 3140,
      "Ġperfect": 3141,
      "Ġview": 3142,
      "Ġcouldn": 3143,
      "rieben": 3144,
      "Ġerstaun": 3145,
      "wards": 3146,
      "Ġschlecht": 3147,
      "cul": 3148,
      "med": 3149,
      "aster": 3150,
      "Ã¶ff": 3151,
      "Ġunited": 3152,
      "Ġeinzige": 3153,
      "Ġtit": 3154,
      "Ġchin": 3155,
      "Ġjohn": 3156,
      "Ġstreet": 3157,
      "Ġcommunity": 3158,
      "Ġgovernment": 3159,
      "Ġknew": 3160,
      "Ġsum": 3161,
      "Ġdein": 3162,
      "Ġdet": 3163,
      "Ġwall": 3164,
      "Ġbott": 3165,
      "Ġkil": 3166,
      "Ġstunden": 3167,
      "Ġmittel": 3168,
      "Ġwort": 3169,
      "Ġloc": 3170,
      "Ġgrand": 3171,
      "Ġplaces": 3172,
      "Ġbehand": 3173,
      "Ġgroup": 3174,
      "Ġocean": 3175,
      "cin": 3176,
      "fÃ¤": 3177,
      "glichen": 3178,
      "Ġwin": 3179,
      "anc": 3180,
      "Ġgave": 3181,
      "apt": 3182,
      "oud": 3183,
      "Ġweb": 3184,
      "anger": 3185,
      "izin": 3186,
      "portun": 3187,
      "ished": 3188,
      "Ġanimals": 3189,
      "Ġsozial": 3190,
      "Ġconnect": 3191,
      "Ġspecies": 3192,
      "Ġsow": 3193,
      "asure": 3194,
      "Ġeight": 3195,
      "Ġluft": 3196,
      "quen": 3197,
      "ache": 3198,
      "tend": 3199,
      "Ġresult": 3200,
      "Ġsachen": 3201,
      "Ġpopulation": 3202,
      "unsere": 3203,
      "Ġcannot": 3204,
      "ugen": 3205,
      "zum": 3206,
      "ature": 3207,
      "ĠfÃ¤higkeit": 3208,
      "Ġstate": 3209,
      "Ġergebnis": 3210,
      "ktor": 3211,
      "Ġarbeite": 3212,
      "Ã¤nger": 3213,
      "Ġdeal": 3214,
      "Ġgeneration": 3215,
      "face": 3216,
      "ĠÃ¤ndern": 3217,
      "Ġty": 3218,
      "ĠfÃ¤": 3219,
      "Ġones": 3220,
      "verage": 3221,
      "Ġworked": 3222,
      "werk": 3223,
      "Ġopportun": 3224,
      "Ġpublic": 3225,
      "dar": 3226,
      "fir": 3227,
      "wel": 3228,
      "Ġschwar": 3229,
      "Ġalong": 3230,
      "ides": 3231,
      "Ġprozess": 3232,
      "ĠÃ¼berr": 3233,
      "Ġcompany": 3234,
      "Ġsolar": 3235,
      "Ã¤sst": 3236,
      "Ġtakes": 3237,
      "Ġfriends": 3238,
      "natÃ¼rlich": 3239,
      "gre": 3240,
      "punkt": 3241,
      "Ġsaf": 3242,
      "ante": 3243,
      "tete": 3244,
      "ortra": 3245,
      "Ġcons": 3246,
      "Ġintern": 3247,
      "Ġacc": 3248,
      "Ġstudents": 3249,
      "Ġsurpr": 3250,
      "Ġweitere": 3251,
      "Ġanfang": 3252,
      "zer": 3253,
      "Ġerreichen": 3254,
      "Ġmeth": 3255,
      "ĠfrÃ¼": 3256,
      "viele": 3257,
      "Ã¶lker": 3258,
      "Ġbehav": 3259,
      "ros": 3260,
      "zz": 3261,
      "zin": 3262,
      "Ġdun": 3263,
      "Ġober": 3264,
      "ison": 3265,
      "Ġthemselves": 3266,
      "Ã¤cht": 3267,
      "Ġblue": 3268,
      "icks": 3269,
      "Ġbeginnen": 3270,
      "Ġ198": 3271,
      "Ġlearning": 3272,
      "ning": 3273,
      "Ġav": 3274,
      "ĠvÃ¶": 3275,
      "Ġverein": 3276,
      "Ġziel": 3277,
      "ither": 3278,
      "neh": 3279,
      "Ġseinem": 3280,
      "Ġfreund": 3281,
      "right": 3282,
      "ĠkÃ¼nst": 3283,
      "Ġjahrh": 3284,
      "Ġtaken": 3285,
      "Ġbeiden": 3286,
      "Ġadd": 3287,
      "Ġsystems": 3288,
      "iben": 3289,
      "Ġsun": 3290,
      "Ġdest": 3291,
      "Ġhab": 3292,
      "Ġmussten": 3293,
      "Ġbesonders": 3294,
      "Ġnon": 3295,
      "ologie": 3296,
      "ĠfÃ¼hr": 3297,
      "Ġagainst": 3298,
      "Ġelectric": 3299,
      "Ã¼cke": 3300,
      "oms": 3301,
      "Ġleg": 3302,
      "Ġprim": 3303,
      "Ġpost": 3304,
      "ordin": 3305,
      "mÃ¶glich": 3306,
      "maybe": 3307,
      "dam": 3308,
      "orie": 3309,
      "Ġkid": 3310,
      "Ġtoll": 3311,
      "Ġforsch": 3312,
      "Ġgesicht": 3313,
      "Ġass": 3314,
      "Ġdeath": 3315,
      "Ġbesten": 3316,
      "Ġjedem": 3317,
      "Ġbox": 3318,
      "Ġmedizin": 3319,
      "Ġstudy": 3320,
      "Ġinformationen": 3321,
      "ghan": 3322,
      "Ġirgendwie": 3323,
      "Ġtaking": 3324,
      "Ġmiddle": 3325,
      "Ġgesellschaft": 3326,
      "Ġeinge": 3327,
      "Ġfield": 3328,
      "bert": 3329,
      "oph": 3330,
      "iale": 3331,
      "Ġneeds": 3332,
      "pekt": 3333,
      "Ġexplain": 3334,
      "Ġ80": 3335,
      "Ġincredible": 3336,
      "Ġpast": 3337,
      "Ġcy": 3338,
      "Ġwhe": 3339,
      "Ġerkennen": 3340,
      "Ġlead": 3341,
      "Ġbekam": 3342,
      "Ġeltern": 3343,
      "Ġlonger": 3344,
      "Ġprogramm": 3345,
      "Ġoptim": 3346,
      "Ġhold": 3347,
      "itet": 3348,
      "Ġlau": 3349,
      "Ġstay": 3350,
      "ivil": 3351,
      "Ġstellt": 3352,
      "Ġpoor": 3353,
      "Ġbewegen": 3354,
      "Ġpract": 3355,
      "Ġphotograph": 3356,
      "ban": 3357,
      "year": 3358,
      "Ġsometimes": 3359,
      "Ġbat": 3360,
      "Ġgol": 3361,
      "ĠstÃ¼ck": 3362,
      "Ġunten": 3363,
      "Ġ17": 3364,
      "Ġgetan": 3365,
      "Ġinterested": 3366,
      "Ġ199": 3367,
      "grund": 3368,
      "Ġabsolutely": 3369,
      "pfen": 3370,
      "vin": 3371,
      "apan": 3372,
      "Ġbezie": 3373,
      "Ġhall": 3374,
      "Ġverstand": 3375,
      "Ġmoving": 3376,
      "Ã¤hlt": 3377,
      "ully": 3378,
      "Ġletzte": 3379,
      "Ġborn": 3380,
      "otz": 3381,
      "alen": 3382,
      "Ġbeob": 3383,
      "ĠstÃ¤d": 3384,
      "ibr": 3385,
      "Ġdeep": 3386,
      "Ġclos": 3387,
      "gestellt": 3388,
      "look": 3389,
      "lieÃŁlich": 3390,
      "Ġast": 3391,
      "Ġwahl": 3392,
      "Ġbir": 3393,
      "Ġbank": 3394,
      "Ġnice": 3395,
      "Ġinde": 3396,
      "Ã¤ten": 3397,
      "Ġwhile": 3398,
      "Ġord": 3399,
      "Ġpress": 3400,
      "hnt": 3401,
      "ĠÃ¶l": 3402,
      "Ġhause": 3403,
      "ĠhÃ¤tten": 3404,
      "Ġfish": 3405,
      "ising": 3406,
      "ĠlÃ¤nder": 3407,
      "Ġreich": 3408,
      "immen": 3409,
      "Ġleave": 3410,
      "Ġgoogle": 3411,
      "Ġspend": 3412,
      "assion": 3413,
      "Ġoutside": 3414,
      "Ġyourself": 3415,
      "Ġunters": 3416,
      "ology": 3417,
      "Ġfunktionieren": 3418,
      "Ġearly": 3419,
      "Ġbeginning": 3420,
      "mm": 3421,
      "Ġtaus": 3422,
      "Ġsug": 3423,
      "Ġve": 3424,
      "Ġimage": 3425,
      "Ġwerk": 3426,
      "Ġzahlen": 3427,
      "bre": 3428,
      "ibe": 3429,
      "Ġhast": 3430,
      "ites": 3431,
      "ĠgefÃ¼hl": 3432,
      "annte": 3433,
      "Ġarea": 3434,
      "iziert": 3435,
      "Ġfragte": 3436,
      "Ġafghan": 3437,
      "Ġstatt": 3438,
      "Ġauto": 3439,
      "Ġbringt": 3440,
      "Ã¤ume": 3441,
      "ball": 3442,
      "inos": 3443,
      "Ġwider": 3444,
      "Ġmik": 3445,
      "Ġcop": 3446,
      "text": 3447,
      "Ġlehrer": 3448,
      "cker": 3449,
      "Ġhey": 3450,
      "Ġ14": 3451,
      "Ġdead": 3452,
      "Ġstep": 3453,
      "Ġbuy": 3454,
      "Ġrelations": 3455,
      "Ġeigene": 3456,
      "Ġrisk": 3457,
      "Ġschwierig": 3458,
      "Ġsociety": 3459,
      "gra": 3460,
      "hlt": 3461,
      "hÃ¶ren": 3462,
      "zug": 3463,
      "igten": 3464,
      "Ġschreiben": 3465,
      "Ġmanchmal": 3466,
      "Ġmarket": 3467,
      "Ġinnovation": 3468,
      "Ġsoftware": 3469,
      "auch": 3470,
      "aktion": 3471,
      "dh": 3472,
      "ef": 3473,
      "Ġsan": 3474,
      "ana": 3475,
      "Ġeth": 3476,
      "Ġredu": 3477,
      "Ġneg": 3478,
      "iken": 3479,
      "Ġstell": 3480,
      "Ã¤chst": 3481,
      "akter": 3482,
      "Ġneeded": 3483,
      "Ġclose": 3484,
      "Ġstatist": 3485,
      "Ġverwenden": 3486,
      "Ġfolgen": 3487,
      "Ġfinger": 3488,
      "Ġfliegen": 3489,
      "bere": 3490,
      "haus": 3491,
      "iot": 3492,
      "pa": 3493,
      "ĠtÃ¶": 3494,
      "Ġtier": 3495,
      "onen": 3496,
      "Ġlog": 3497,
      "Ã¤uf": 3498,
      "gefÃ¼hl": 3499,
      "Ġjapan": 3500,
      "Ġerre": 3501,
      "Ġorder": 3502,
      "Ġsollen": 3503,
      "Ġkrebs": 3504,
      "Ġcommunic": 3505,
      "setzen": 3506,
      "iol": 3507,
      "jÃ¤hr": 3508,
      "pect": 3509,
      "Ġleiden": 3510,
      "Ġneues": 3511,
      "Ġimpro": 3512,
      "Ġsomebody": 3513,
      "ards": 3514,
      "Ġreality": 3515,
      "Ġmedia": 3516,
      "Ġnorth": 3517,
      "Ġbedeut": 3518,
      "Ġsicherheit": 3519,
      "gewÃ¶hn": 3520,
      "Ġsprache": 3521,
      "dit": 3522,
      "uit": 3523,
      "Ġbud": 3524,
      "Ġfore": 3525,
      "urt": 3526,
      "alles": 3527,
      "ielt": 3528,
      "Ġperfe": 3529,
      "Ġadv": 3530,
      "ĠmÃ¶glichkeiten": 3531,
      "hÃ¤ng": 3532,
      "vÃ¶lker": 3533,
      "Ġsicht": 3534,
      "ouch": 3535,
      "anda": 3536,
      "Ġvertra": 3537,
      "Ġrecent": 3538,
      "Ġleicht": 3539,
      "Ġchance": 3540,
      "ource": 3541,
      "itting": 3542,
      "Ġfavor": 3543,
      "Ġwollten": 3544,
      "Ġhands": 3545,
      "view": 3546,
      "Ġmorgen": 3547,
      "jeder": 3548,
      "Ġweek": 3549,
      "Ġinnerhalb": 3550,
      "publ": 3551,
      "zip": 3552,
      "Ġwhite": 3553,
      "Ġsho": 3554,
      "Ġmache": 3555,
      "Ġpattern": 3556,
      "Ġpaper": 3557,
      "erweise": 3558,
      "Ġdad": 3559,
      "stein": 3560,
      "stÃ¼t": 3561,
      "Ġoze": 3562,
      "isst": 3563,
      "Ġess": 3564,
      "Ġaltern": 3565,
      "heute": 3566,
      "Ġsomeone": 3567,
      "Ġmenschlichen": 3568,
      "Ġfeed": 3569,
      "ried": 3570,
      "Ġpersonal": 3571,
      "Ġpowerful": 3572,
      "ĠglÃ¼cklich": 3573,
      "Ġpatienten": 3574,
      "lin": 3575,
      "Ġ/": 3576,
      "Ġeat": 3577,
      "Ġfert": 3578,
      "Ġinfr": 3579,
      "Ġunbe": 3580,
      "Ġmob": 3581,
      "Ġcommon": 3582,
      "ogra": 3583,
      "Ġlost": 3584,
      "Ġdarin": 3585,
      "Ġkommun": 3586,
      "acy": 3587,
      "Ġkey": 3588,
      "Ġcenter": 3589,
      "Ġvirus": 3590,
      "Ġenglish": 3591,
      "Ġwusste": 3592,
      "Ġdigital": 3593,
      "dig": 3594,
      "ĠlÃ¤sst": 3595,
      "wirk": 3596,
      "Ġconsum": 3597,
      "Ġmaj": 3598,
      "Ġfoot": 3599,
      "ĠpersÃ¶n": 3600,
      "volved": 3601,
      "Ġherausforder": 3602,
      "Ġgrunde": 3603,
      "Ġturned": 3604,
      "Ġserv": 3605,
      "Ġbooks": 3606,
      "Ġsterben": 3607,
      "Ġelektr": 3608,
      "ĠgebÃ¤ude": 3609,
      "ping": 3610,
      "zte": 3611,
      "anten": 3612,
      "Ġgas": 3613,
      "Ġgala": 3614,
      "Ġtheory": 3615,
      "Ġzent": 3616,
      "ilen": 3617,
      "einige": 3618,
      "Ġgruppe": 3619,
      "Ġdisease": 3620,
      "kraft": 3621,
      "sw": 3622,
      "zy": 3623,
      "Ġfear": 3624,
      "Ġausge": 3625,
      "Ġtried": 3626,
      "Ġplast": 3627,
      "Ġflu": 3628,
      "Ġraus": 3629,
      "ĠfÃ¼hlen": 3630,
      "Ġguess": 3631,
      "Ġkamen": 3632,
      "zentr": 3633,
      "ĠgrÃ¶ÃŁte": 3634,
      "Ġmilit": 3635,
      "Ġverschw": 3636,
      "Ġtemper": 3637,
      "Ġbehavior": 3638,
      "fully": 3639,
      "nein": 3640,
      "Ġpoll": 3641,
      "orge": 3642,
      "Ġeinigen": 3643,
      "ieso": 3644,
      "ums": 3645,
      "Ġsold": 3646,
      "Ġaussehen": 3647,
      "astru": 3648,
      "Ġgene": 3649,
      "Ġfinally": 3650,
      "idence": 3651,
      "Ġtreffen": 3652,
      "Ġdream": 3653,
      "Ġsince": 3654,
      "Ġscheint": 3655,
      "ekt": 3656,
      "Ġbal": 3657,
      "aring": 3658,
      "Ġindem": 3659,
      "Ġkultur": 3660,
      "thers": 3661,
      "Ġsek": 3662,
      "Ġsieben": 3663,
      "rab": 3664,
      "inder": 3665,
      "Ġ13": 3666,
      "Ġumwelt": 3667,
      "Ġzeich": 3668,
      "Ġgenannt": 3669,
      "Ġgewor": 3670,
      "ĠfÃ¼hren": 3671,
      "Ġshows": 3672,
      "bte": 3673,
      "don": 3674,
      "haps": 3675,
      "ĠÃ¤nder": 3676,
      "Ġfern": 3677,
      "Ã¼ckt": 3678,
      "Ġverbess": 3679,
      "noch": 3680,
      "Ġmodell": 3681,
      "Ġvisual": 3682,
      "ynam": 3683,
      "Ġpresent": 3684,
      "bas": 3685,
      "Ġx": 3686,
      "Ġaben": 3687,
      "Ġduring": 3688,
      "Ġkreat": 3689,
      "Ġlesen": 3690,
      "usion": 3691,
      "ilar": 3692,
      "weit": 3693,
      "Ġersch": 3694,
      "Ġrand": 3695,
      "Ġcode": 3696,
      "Ġkindern": 3697,
      "Ġfeet": 3698,
      "Ġmars": 3699,
      "Ġparents": 3700,
      "Ġbereich": 3701,
      "book": 3702,
      "Ġserious": 3703,
      "Ġ90": 3704,
      "pression": 3705,
      "ĠmÃ¤nner": 3706,
      "Ġjunge": 3707,
      "Ġrelationship": 3708,
      "ake": 3709,
      "bol": 3710,
      "erer": 3711,
      "Ġding": 3712,
      "Ġbist": 3713,
      "Ġnation": 3714,
      "Ġoc": 3715,
      "Ġvill": 3716,
      "Ġlow": 3717,
      "Ġmechan": 3718,
      "aug": 3719,
      "Ġmodern": 3720,
      "ivers": 3721,
      "Ġbereit": 3722,
      "Ġnumbers": 3723,
      "lossen": 3724,
      "Ġstruktur": 3725,
      "Ġtage": 3726,
      "Ġthough": 3727,
      "itze": 3728,
      "ouble": 3729,
      "Ġinse": 3730,
      "Ġgebe": 3731,
      "Ġerhalten": 3732,
      "hnung": 3733,
      "Ġgewalt": 3734,
      "fÃ¼hrt": 3735,
      "Ġcentury": 3736,
      "Ġdraw": 3737,
      "Ġabsolut": 3738,
      "sichtlich": 3739,
      "Ġcirc": 3740,
      "Ġuntil": 3741,
      "Ġaktiv": 3742,
      "undert": 3743,
      "omat": 3744,
      "idge": 3745,
      "Ġamo": 3746,
      "bau": 3747,
      "ially": 3748,
      "statt": 3749,
      "Ġfather": 3750,
      "Ġothers": 3751,
      "Ġculture": 3752,
      "Ã¼gen": 3753,
      "igte": 3754,
      "eder": 3755,
      "utions": 3756,
      "Ġallein": 3757,
      "Ġanimal": 3758,
      "Ġbleiben": 3759,
      "Ġinfrastru": 3760,
      "aÃŁ": 3761,
      "ound": 3762,
      "wÃ¼r": 3763,
      "Ġtum": 3764,
      "ĠhÃ¶r": 3765,
      "Ġecht": 3766,
      "Ġpfl": 3767,
      "Ġkat": 3768,
      "Ġkoll": 3769,
      "entlichen": 3770,
      "amp": 3771,
      "elbe": 3772,
      "ults": 3773,
      "ĠunterstÃ¼t": 3774,
      "wert": 3775,
      "Ġcompassion": 3776,
      "flÃ¤che": 3777,
      "Ġtages": 3778,
      "Ġgirl": 3779,
      "kle": 3780,
      "kÃ¼": 3781,
      "oy": 3782,
      "pan": 3783,
      "endet": 3784,
      "Ġaverage": 3785,
      "Ġsom": 3786,
      "Ġwish": 3787,
      "ĠhÃ¼": 3788,
      "itter": 3789,
      "Ġfight": 3790,
      "Ġcities": 3791,
      "Ġstimmt": 3792,
      "Ġallow": 3793,
      "Ġgren": 3794,
      "Ġknows": 3795,
      "Ġzehn": 3796,
      "gessen": 3797,
      "Ġversion": 3798,
      "Ġversucht": 3799,
      "Ġmarke": 3800,
      "Ġproduz": 3801,
      "ĠbenÃ¶t": 3802,
      "Ġbestimm": 3803,
      "Ġverschiedenen": 3804,
      "Ġbeginnt": 3805,
      "pp": 3806,
      "ĠÃ¤r": 3807,
      "Ġacht": 3808,
      "Ġsam": 3809,
      "Ġgone": 3810,
      "ised": 3811,
      "uren": 3812,
      "Ġrather": 3813,
      "auso": 3814,
      "zeugen": 3815,
      "Ġtext": 3816,
      "Ġpassieren": 3817,
      "Ġarbeits": 3818,
      "Ġsmart": 3819,
      "Ġerfahrung": 3820,
      "Ġsurv": 3821,
      "Ġregierung": 3822,
      "Ġ70": 3823,
      "Ġissue": 3824,
      "Ġcollege": 3825,
      "Ġmajor": 3826,
      "ham": 3827,
      "tin": 3828,
      "une": 3829,
      "Ġevent": 3830,
      "Ġerschaf": 3831,
      "head": 3832,
      "ifen": 3833,
      "Ġworden": 3834,
      "Ġinteract": 3835,
      "Ġseeing": 3836,
      "Ġground": 3837,
      "Ġkonzentr": 3838,
      "Ġwoche": 3839,
      "Ġjedoch": 3840,
      "Ġ196": 3841,
      "Ġ500": 3842,
      "Ġkleines": 3843,
      "Ġslow": 3844,
      "Ã¤sent": 3845,
      "Ġexpect": 3846,
      "haft": 3847,
      "Ġvari": 3848,
      "bon": 3849,
      "ele": 3850,
      "nur": 3851,
      "will": 3852,
      "Ġsal": 3853,
      "esh": 3854,
      "onnen": 3855,
      "Ġhig": 3856,
      "Ġhosp": 3857,
      "Ġbeide": 3858,
      "amer": 3859,
      "wegen": 3860,
      "aul": 3861,
      "Ġwochen": 3862,
      "Ġapp": 3863,
      "haben": 3864,
      "Ġbewegung": 3865,
      "Ġterms": 3866,
      "Ġrecord": 3867,
      "Ġbesteht": 3868,
      "posed": 3869,
      "Ġentscheid": 3870,
      "Ġapproach": 3871,
      "tatsÃ¤chlich": 3872,
      "Ġtiere": 3873,
      "Ġwach": 3874,
      "Ġemer": 3875,
      "Ġverh": 3876,
      "ama": 3877,
      "ement": 3878,
      "Ġnear": 3879,
      "Ġaren": 3880,
      "Ġ21": 3881,
      "Ġthema": 3882,
      "Ġmenschliche": 3883,
      "Ġmuse": 3884,
      "Ġbegin": 3885,
      "Ġlangsam": 3886,
      "Ġvision": 3887,
      "Ġprotect": 3888,
      "Ġrespons": 3889,
      "Ġkranken": 3890,
      "Ġcolor": 3891,
      "ĠerklÃ¤r": 3892,
      "Ġhilfe": 3893,
      "nahme": 3894,
      "Ġernst": 3895,
      "Ġquickly": 3896,
      "ĠlÃ¶sung": 3897,
      "Ġeis": 3898,
      "Ġwegen": 3899,
      "ĠrÃ¼ck": 3900,
      "antwort": 3901,
      "Ġvorher": 3902,
      "ĠgeschÃ¤ft": 3903,
      "Ġfair": 3904,
      "Ġscale": 3905,
      "Ġanybody": 3906,
      "Ġstrateg": 3907,
      "Ġguten": 3908,
      "Ġverbre": 3909,
      "ĠfÃ¼hrt": 3910,
      "Ġauth": 3911,
      "Ġpark": 3912,
      "Ġfinanz": 3913,
      "Ġantwor": 3914,
      "Ġexamples": 3915,
      "Ġentwickeln": 3916,
      "Ġvirt": 3917,
      "Ġvalue": 3918,
      "Ġfundam": 3919,
      "Ġorigin": 3920,
      "akt": 3921,
      "ube": 3922,
      "with": 3923,
      "Ġdom": 3924,
      "Ġnennt": 3925,
      "isse": 3926,
      "urg": 3927,
      "gegen": 3928,
      "genommen": 3929,
      "Ġerle": 3930,
      "Ġforce": 3931,
      "Ġhervor": 3932,
      "which": 3933,
      "schafts": 3934,
      "ĠmÃ¶chten": 3935,
      "Ġscre": 3936,
      "Ġparts": 3937,
      "Ġspecial": 3938,
      "Ġsolche": 3939,
      "Ġchallenge": 3940,
      "aschen": 3941,
      "Ġinte": 3942,
      "Ġrequ": 3943,
      "ett": 3944,
      "ops": 3945,
      "Ġdark": 3946,
      "Ġwouldn": 3947,
      "serv": 3948,
      "Ġspez": 3949,
      "Ġrecogn": 3950,
      "Ġmotiv": 3951,
      "Ġschritt": 3952,
      "bor": 3953,
      "zust": 3954,
      "ativ": 3955,
      "Ġeher": 3956,
      "Ġkraft": 3957,
      "those": 3958,
      "Ġschaf": 3959,
      "Ġleast": 3960,
      "Ġaufre": 3961,
      "Ġmeines": 3962,
      "igkeiten": 3963,
      "ĠgefÃ¤hr": 3964,
      "Ġmovement": 3965,
      "Ġseems": 3966,
      "ĠerklÃ¤ren": 3967,
      "ograf": 3968,
      "kop": 3969,
      "mus": 3970,
      "pers": 3971,
      "Ġtief": 3972,
      "chts": 3973,
      "Ġakt": 3974,
      "ester": 3975,
      "Ġhom": 3976,
      "itzen": 3977,
      "Ġzerst": 3978,
      "Ġ24": 3979,
      "ources": 3980,
      "Ġgeschie": 3981,
      "udden": 3982,
      "Ġlieben": 3983,
      "Ġ300": 3984,
      "Ġeconomic": 3985,
      "Ġtotal": 3986,
      "Ġeinges": 3987,
      "Ġplease": 3988,
      "ĠvÃ¶llig": 3989,
      "aught": 3990,
      "Ġdynam": 3991,
      "Ġmos": 3992,
      "Ġpan": 3993,
      "Ġpal": 3994,
      "Ġzellen": 3995,
      "Ã¤uft": 3996,
      "ently": 3997,
      "Ġsell": 3998,
      "Ġregen": 3999,
      "ibility": 4000,
      "Ġgefunden": 4001,
      "Ġanfangen": 4002,
      "Ġdirect": 4003,
      "scious": 4004,
      "fre": 4005,
      "tod": 4006,
      "Ġdinos": 4007,
      "ieb": 4008,
      "Ġlond": 4009,
      "Ġgeist": 4010,
      "Ġalter": 4011,
      "Ġgeset": 4012,
      "Ġzeige": 4013,
      "who": 4014,
      "auft": 4015,
      "Ġgelernt": 4016,
      "Ġcollect": 4017,
      "Ġgrowth": 4018,
      "Ġkrieg": 4019,
      "Ġgeworden": 4020,
      "iant": 4021,
      "zw": 4022,
      "Ġtal": 4023,
      "Ġtouch": 4024,
      "Ġice": 4025,
      "Ġmis": 4026,
      "Ġfire": 4027,
      "Ġsehe": 4028,
      "ĠverfÃ¼": 4029,
      "ami": 4030,
      "Ġerwar": 4031,
      "stehen": 4032,
      "Ġbrought": 4033,
      "prochen": 4034,
      "Ġopportunity": 4035,
      "rupt": 4036,
      "Ġwicht": 4037,
      "Ġhung": 4038,
      "Ġbor": 4039,
      "stre": 4040,
      "Ġpull": 4041,
      "organ": 4042,
      "Ġlif": 4043,
      "Ġju": 4044,
      "Ġverantwort": 4045,
      "Ġneben": 4046,
      "seite": 4047,
      "okrat": 4048,
      "Ġmain": 4049,
      "izieren": 4050,
      "Ġroad": 4051,
      "spro": 4052,
      "Ġeverywhere": 4053,
      "inner": 4054,
      "Ġpassierte": 4055,
      "Ġdamals": 4056,
      "Ġminute": 4057,
      "deshalb": 4058,
      "ĠÃ¼br": 4059,
      "Ġlinks": 4060,
      "Ġstaaten": 4061,
      "Ġrepres": 4062,
      "Ġfehler": 4063,
      "pose": 4064,
      "sive": 4065,
      "Ġmorn": 4066,
      "Ġgold": 4067,
      "Ġfahr": 4068,
      "Ġrei": 4069,
      "Ġrein": 4070,
      "Ġalone": 4071,
      "Ġdurchschnitt": 4072,
      "Ġsimply": 4073,
      "Ġfindet": 4074,
      "Ġgeneral": 4075,
      "Ġchanges": 4076,
      "ledge": 4077,
      "Ġchrist": 4078,
      "first": 4079,
      "Ġgeschieht": 4080,
      "gliche": 4081,
      "Ġsent": 4082,
      "Ġsize": 4083,
      "rel": 4084,
      "Ġep": 4085,
      "Ġpun": 4086,
      "Ġkaufen": 4087,
      "Ġlaufen": 4088,
      "Ġmeasure": 4089,
      "Ġblock": 4090,
      "Ġgeboren": 4091,
      "Ġniemals": 4092,
      "Ġsupport": 4093,
      "Ġinstrum": 4094,
      "Ġverwand": 4095,
      "Ġgrowing": 4096,
      "Ġfriend": 4097,
      "Ġeurope": 4098,
      "ique": 4099,
      "Ġlondon": 4100,
      "car": 4101,
      "lungs": 4102,
      "ined": 4103,
      "ints": 4104,
      "icher": 4105,
      "Ġbege": 4106,
      "Ġdied": 4107,
      "Ġdescr": 4108,
      "izing": 4109,
      "wohl": 4110,
      "Ġstrong": 4111,
      "Ġpolic": 4112,
      "Ġnamen": 4113,
      "Ġentwicklung": 4114,
      "uÃŁ": 4115,
      "wÃ¤r": 4116,
      "Ġtie": 4117,
      "Ġdingen": 4118,
      "ĠwÃ¤ren": 4119,
      "itation": 4120,
      "think": 4121,
      "cks": 4122,
      "Ġmeter": 4123,
      "ains": 4124,
      "Ġbrit": 4125,
      "Ġblind": 4126,
      "stens": 4127,
      "Ġbekannt": 4128,
      "Ġcomputers": 4129,
      "Ġregion": 4130,
      "Ġinteressiert": 4131,
      "Ġrunning": 4132,
      "Ġweeks": 4133,
      "Ġmorning": 4134,
      "ko": 4135,
      "kar": 4136,
      "ny": 4137,
      "ri": 4138,
      "tag": 4139,
      "ystem": 4140,
      "zogen": 4141,
      "Ġult": 4142,
      "Ġsend": 4143,
      "Ġsamm": 4144,
      "Ġbom": 4145,
      "isieren": 4146,
      "Ġstage": 4147,
      "ifft": 4148,
      "ĠmitgefÃ¼hl": 4149,
      "wirtschaft": 4150,
      "Ġeinfache": 4151,
      "Ġtechnik": 4152,
      "Ġsimilar": 4153,
      "Ã¤ss": 4154,
      "Ġimages": 4155,
      "Ġmiles": 4156,
      "Ġgemeinsam": 4157,
      "Ġterror": 4158,
      "Ġintelligen": 4159,
      "Ġmicro": 4160,
      "Ġbetrachten": 4161,
      "kÃ¶nnen": 4162,
      "Ġdetail": 4163,
      "res": 4164,
      "yeah": 4165,
      "Ġhon": 4166,
      "Ġfur": 4167,
      "Ġpath": 4168,
      "Ġlas": 4169,
      "ĠbevÃ¶lker": 4170,
      "uchs": 4171,
      "ived": 4172,
      "Ġplatz": 4173,
      "Ġcover": 4174,
      "wood": 4175,
      "Ġblick": 4176,
      "Ġdrug": 4177,
      "Ġstrom": 4178,
      "Ġbigger": 4179,
      "ĠerzÃ¤hl": 4180,
      "Ġposition": 4181,
      "Ġhoffe": 4182,
      "Ġincredibly": 4183,
      "Ġfoto": 4184,
      "ee": 4185,
      "chsel": 4186,
      "Ġmap": 4187,
      "Ġbon": 4188,
      "Ġgames": 4189,
      "Ġoxy": 4190,
      "Ġinstead": 4191,
      "Ġtom": 4192,
      "amkeit": 4193,
      "Ġrom": 4194,
      "Ġrate": 4195,
      "Ġallem": 4196,
      "ĠspaÃŁ": 4197,
      "Ġmoder": 4198,
      "zeuge": 4199,
      "Ġdeut": 4200,
      "merks": 4201,
      "Ġscr": 4202,
      "Ġgebaut": 4203,
      "Ġmedien": 4204,
      "Ġkleiner": 4205,
      "Ġnetwork": 4206,
      "Ġdirekt": 4207,
      "Ġsymmet": 4208,
      "Ġsymbol": 4209,
      "Ġattention": 4210,
      "Ġthousands": 4211,
      "Ġmaschine": 4212,
      "Ġchinese": 4213,
      "Ġamount": 4214,
      "uell": 4215,
      "uÃŁen": 4216,
      "Ġfix": 4217,
      "osh": 4218,
      "Ġpick": 4219,
      "Ġreach": 4220,
      "oper": 4221,
      "ills": 4222,
      "Ġconcept": 4223,
      "ips": 4224,
      "Ġgleichen": 4225,
      "Ġplaying": 4226,
      "Ġverloren": 4227,
      "Ġjobs": 4228,
      "Ã¶tzlich": 4229,
      "Ġoffensichtlich": 4230,
      "Ġgirls": 4231,
      "Ġentscheiden": 4232,
      "Ġobviously": 4233,
      "even": 4234,
      "gu": 4235,
      "hy": 4236,
      "lang": 4237,
      "Ġwachsen": 4238,
      "Ġnenne": 4239,
      "Ġlern": 4240,
      "Ġsea": 4241,
      "Ġspent": 4242,
      "Ġenorm": 4243,
      "stellt": 4244,
      "iled": 4245,
      "Ġverbindung": 4246,
      "Ġmonate": 4247,
      "Ġhumans": 4248,
      "Ġstudent": 4249,
      "Ġstarting": 4250,
      "Ġfreunde": 4251,
      "Ġwrite": 4252,
      "Ġfeeling": 4253,
      "Ġsky": 4254,
      "Ġrichtung": 4255,
      "Ġkomplett": 4256,
      "Ġnahm": 4257,
      "Ġliterally": 4258,
      "Ġafghanistan": 4259,
      "machen": 4260,
      "eng": 4261,
      "Ġtin": 4262,
      "Ġeither": 4263,
      "Ġinfl": 4264,
      "sieht": 4265,
      "Ġkompl": 4266,
      "lieÃŁen": 4267,
      "Ġmarkt": 4268,
      "Ġmedic": 4269,
      "Ġprodukt": 4270,
      "Ġ201": 4271,
      "Ġbeispiele": 4272,
      "Ġbildung": 4273,
      "teilt": 4274,
      "Ġpositive": 4275,
      "Ġaudience": 4276,
      "band": 4277,
      "dlich": 4278,
      "Ġarab": 4279,
      "Ġdanger": 4280,
      "Ġign": 4281,
      "ators": 4282,
      "Ġnord": 4283,
      "Ġpur": 4284,
      "Ġcaus": 4285,
      "Ã¤gt": 4286,
      "Ġjungen": 4287,
      "Ġaufge": 4288,
      "Ġaufmerks": 4289,
      "ustain": 4290,
      "abil": 4291,
      "Ġdemoc": 4292,
      "Ġkannst": 4293,
      "Ġstelle": 4294,
      "Ġbecomes": 4295,
      "Ġautos": 4296,
      "Ġjemals": 4297,
      "ĠdrauÃŁen": 4298,
      "Ġreasons": 4299,
      "Ġextraordin": 4300,
      "Ġtruth": 4301,
      "Ġaufgabe": 4302,
      "iber": 4303,
      "Ġdro": 4304,
      "ĠmÃ¼": 4305,
      "Ġfro": 4306,
      "Ġol": 4307,
      "Ġker": 4308,
      "Ġisland": 4309,
      "Ġselt": 4310,
      "Ġanderer": 4311,
      "annten": 4312,
      "Ã¤nde": 4313,
      "Ã¤ngt": 4314,
      "Ġtrust": 4315,
      "Ġpeace": 4316,
      "Ġmark": 4317,
      "Ġstudenten": 4318,
      "Ġtelling": 4319,
      "Ġgedanken": 4320,
      "Ġpotential": 4321,
      "Ġextremely": 4322,
      "Ġtools": 4323,
      "Ġlocal": 4324,
      "20": 4325,
      "ding": 4326,
      "lam": 4327,
      "indet": 4328,
      "Ġther": 4329,
      "aner": 4330,
      "itch": 4331,
      "Ġfelt": 4332,
      "ossen": 4333,
      "Ġport": 4334,
      "Ġintro": 4335,
      "Ġready": 4336,
      "Ġzuvor": 4337,
      "Ġsche": 4338,
      "iforn": 4339,
      "Ġnobody": 4340,
      "Ġdepen": 4341,
      "Ġdessen": 4342,
      "Ġherr": 4343,
      "ploy": 4344,
      "Ġwants": 4345,
      "Ġklim": 4346,
      "produ": 4347,
      "baren": 4348,
      "Ġelement": 4349,
      "Ġbekommt": 4350,
      "Ġeconomy": 4351,
      "Ġfaszin": 4352,
      "Ġspread": 4353,
      "Ġbottom": 4354,
      "Ġinternational": 4355,
      "otzdem": 4356,
      "lagen": 4357,
      "ode": 4358,
      "ering": 4359,
      "Ġaids": 4360,
      "Ġbang": 4361,
      "Ġgingen": 4362,
      "Ġgiven": 4363,
      "alter": 4364,
      "Ġlay": 4365,
      "Ġhaupt": 4366,
      "raum": 4367,
      "Ġjung": 4368,
      "Ġverm": 4369,
      "cts": 4370,
      "afrik": 4371,
      "ival": 4372,
      "Ġknown": 4373,
      "Ġgenauso": 4374,
      "Ġboy": 4375,
      "Ġboden": 4376,
      "Ġwahrheit": 4377,
      "Ġwissenschaftler": 4378,
      "Ġeye": 4379,
      "Ġbeeinfl": 4380,
      "Ġherausforderung": 4381,
      "ai": 4382,
      "licht": 4383,
      "ming": 4384,
      "xic": 4385,
      "Ġvortra": 4386,
      "Ġviol": 4387,
      "Ġvergleich": 4388,
      "Ġrepl": 4389,
      "scht": 4390,
      "Ġworth": 4391,
      "Ġarr": 4392,
      "iko": 4393,
      "Ġflow": 4394,
      "ĠgroÃŁes": 4395,
      "Ġgewesen": 4396,
      "Ġcars": 4397,
      "jekte": 4398,
      "Ġdecis": 4399,
      "Ġpictures": 4400,
      "Ġstructure": 4401,
      "Ġeurop": 4402,
      "Ġdiscovered": 4403,
      "Ġphilos": 4404,
      "finden": 4405,
      "your": 4406,
      "Ġtro": 4407,
      "unately": 4408,
      "Ġhyp": 4409,
      "ley": 4410,
      "isiert": 4411,
      "Ġerfor": 4412,
      "Ġenth": 4413,
      "wasser": 4414,
      "Ã¤tze": 4415,
      "Ġcompan": 4416,
      "Ġdritte": 4417,
      "Ġanyone": 4418,
      "Ġ197": 4419,
      "Ġgrew": 4420,
      "Ġpatients": 4421,
      "Ġpublikum": 4422,
      "Ġerwachsen": 4423,
      "Ġchris": 4424,
      "Ġtraining": 4425,
      "Ġdevice": 4426,
      "ĠkÃ¼nstler": 4427,
      "Ġerreicht": 4428,
      "col": 4429,
      "kur": 4430,
      "same": 4431,
      "Ġtend": 4432,
      "Ġah": 4433,
      "Ġsong": 4434,
      "atten": 4435,
      "Ġgives": 4436,
      "alitÃ¤t": 4437,
      "Ġlage": 4438,
      "utage": 4439,
      "Ġrede": 4440,
      "Ġreise": 4441,
      "Ġforward": 4442,
      "Ġhell": 4443,
      "auer": 4444,
      "Ġumgeb": 4445,
      "Ġsave": 4446,
      "Ġdavid": 4447,
      "Ġprom": 4448,
      "ipt": 4449,
      "Ġphone": 4450,
      "phone": 4451,
      "Ġbenutzt": 4452,
      "Ġparad": 4453,
      "Ġmagic": 4454,
      "Ġmuster": 4455,
      "Ġprinzip": 4456,
      "Ġuniversity": 4457,
      "Ġmikro": 4458,
      "mung": 4459,
      "Ġtable": 4460,
      "Ġfine": 4461,
      "rael": 4462,
      "ified": 4463,
      "Ġspir": 4464,
      "aud": 4465,
      "ellow": 4466,
      "Ġblood": 4467,
      "Ġbegr": 4468,
      "Ġverbunden": 4469,
      "iction": 4470,
      "utzutage": 4471,
      "Ġsounds": 4472,
      "Ġsoziale": 4473,
      "Ġhoffnung": 4474,
      "Ġexciting": 4475,
      "Ġstudie": 4476,
      "Ġindustry": 4477,
      "Ġjahrhundert": 4478,
      "Ġerschaffen": 4479,
      "today": 4480,
      "bf": 4481,
      "nie": 4482,
      "wind": 4483,
      "zellen": 4484,
      "chr": 4485,
      "ieben": 4486,
      "ĠlÃ¤nger": 4487,
      "amin": 4488,
      "Ġrele": 4489,
      "ules": 4490,
      "seit": 4491,
      "Ġshape": 4492,
      "Ġindustr": 4493,
      "Ġpassion": 4494,
      "Ġverbra": 4495,
      "Ġoffice": 4496,
      "Ġhappiness": 4497,
      "ĠgrÃ¼nde": 4498,
      "nahmen": 4499,
      "ĠgroÃŁartig": 4500,
      "ĠbÃ¼cher": 4501,
      "Ġmuseum": 4502,
      "back": 4503,
      "fore": 4504,
      "masch": 4505,
      "Ġsecre": 4506,
      "see": 4507,
      "ĠÃ¼berw": 4508,
      "Ġconvers": 4509,
      "ierend": 4510,
      "Ġbrill": 4511,
      "Ġperhaps": 4512,
      "Ġstarts": 4513,
      "Ġpolitical": 4514,
      "Ġprakt": 4515,
      "Ġdanach": 4516,
      "Ġstimme": 4517,
      "ihre": 4518,
      "dan": 4519,
      "gut": 4520,
      "ky": 4521,
      "pon": 4522,
      "pol": 4523,
      "wand": 4524,
      "Ġsle": 4525,
      "Ġsuchen": 4526,
      "Ġdram": 4527,
      "este": 4528,
      "ĠbÃ¼r": 4529,
      "Ġpack": 4530,
      "Ġhaven": 4531,
      "ump": 4532,
      "weg": 4533,
      "Ġmeer": 4534,
      "Ġprogress": 4535,
      "Ġgenommen": 4536,
      "Ġgeschehen": 4537,
      "Ġfail": 4538,
      "ziehen": 4539,
      "arbeitet": 4540,
      "Ġhistor": 4541,
      "Ġwait": 4542,
      "Ġchoice": 4543,
      "ĠnÃ¤mlich": 4544,
      "ĠlÃ¶sen": 4545,
      "Ġgalax": 4546,
      "Ġcompanies": 4547,
      "gten": 4548,
      "lauf": 4549,
      "mann": 4550,
      "nal": 4551,
      "uelle": 4552,
      "Ġsudden": 4553,
      "Ġband": 4554,
      "Ġpil": 4555,
      "ural": 4556,
      "Ġmoved": 4557,
      "Ġmount": 4558,
      "abor": 4559,
      "after": 4560,
      "plant": 4561,
      "Ġaction": 4562,
      "Ġcompet": 4563,
      "ĠâĢĶ": 4564,
      "Ġsolution": 4565,
      "Ġtransl": 4566,
      "Ġsurface": 4567,
      "Ġtotally": 4568,
      "Ġamerika": 4569,
      "Ġindividual": 4570,
      "Ġachie": 4571,
      "Ġconsider": 4572,
      "Ġozean": 4573,
      "Ġhospital": 4574,
      "gibt": 4575,
      "hre": 4576,
      "oon": 4577,
      "alien": 4578,
      "entially": 4579,
      "Ġrefle": 4580,
      "Ġsofort": 4581,
      "ĠschÃ¼": 4582,
      "ĠÃ¼berleben": 4583,
      "Ġdeshalb": 4584,
      "Ġmachten": 4585,
      "Ġknowledge": 4586,
      "Ġeinfl": 4587,
      "ĠgroÃŁer": 4588,
      "Ġwirklichkeit": 4589,
      "Ġspeed": 4590,
      "Ġaccess": 4591,
      "Ġschools": 4592,
      "Ġversuche": 4593,
      "Ġcurr": 4594,
      "Ġintegr": 4595,
      "Ġaufmerksamkeit": 4596,
      "yond": 4597,
      "Ġtar": 4598,
      "Ġswe": 4599,
      "Ġbot": 4600,
      "Ġec": 4601,
      "Ġehr": 4602,
      "Ġcart": 4603,
      "ĠschÃ¼t": 4604,
      "Ġcomplic": 4605,
      "Ġteile": 4606,
      "ference": 4607,
      "Ġflo": 4608,
      "Ġclimate": 4609,
      "Ġstrange": 4610,
      "Ġwrote": 4611,
      "ĠbeschÃ¤ft": 4612,
      "ĠÃ¼b": 4613,
      "Ġentdeck": 4614,
      "Ġelectricity": 4615,
      "Ġbedeutung": 4616,
      "Ġvillage": 4617,
      "fon": 4618,
      "miss": 4619,
      "Ġbur": 4620,
      "Ġpage": 4621,
      "Ġkan": 4622,
      "Ġzwar": 4623,
      "Ġstick": 4624,
      "Ġerschein": 4625,
      "Ġschwe": 4626,
      "zeigt": 4627,
      "ively": 4628,
      "Ġconf": 4629,
      "Ġglass": 4630,
      "ored": 4631,
      "Ġobjekt": 4632,
      "Ġhinaus": 4633,
      "Ġdesigned": 4634,
      "Ġfamilien": 4635,
      "ĠverÃ¤nderung": 4636,
      "Ġscientists": 4637,
      "Ġordnung": 4638,
      "fahren": 4639,
      "mp": 4640,
      "Ġdrop": 4641,
      "another": 4642,
      "Ġmel": 4643,
      "Ġmist": 4644,
      "ieten": 4645,
      "stet": 4646,
      "reds": 4647,
      "itÃ¤ten": 4648,
      "arily": 4649,
      "Ġgele": 4650,
      "iers": 4651,
      "uffer": 4652,
      "Ġschmer": 4653,
      "Ġnecess": 4654,
      "Ġtrick": 4655,
      "Ġzeug": 4656,
      "Ġnachrichten": 4657,
      "Ġglam": 4658,
      "sprechen": 4659,
      "ĠmÃ¶gen": 4660,
      "Ġgutes": 4661,
      "ĠgerÃ¤t": 4662,
      "ucle": 4663,
      "Ã¤ndig": 4664,
      "Ġmotor": 4665,
      "Ġdeveloped": 4666,
      "Ġkarte": 4667,
      "Ġmission": 4668,
      "curity": 4669,
      "Ġkontroll": 4670,
      "Ġkontrolle": 4671,
      "Ġkilome": 4672,
      "Ġrecently": 4673,
      "Ġfertig": 4674,
      "Ġwichtige": 4675,
      "cket": 4676,
      "two": 4677,
      "atic": 4678,
      "Ġgere": 4679,
      "Ã¤ÃŁ": 4680,
      "roffen": 4681,
      "gemein": 4682,
      "ĠstÃ¤r": 4683,
      "Ġschau": 4684,
      "ĠschlieÃŁlich": 4685,
      "Ġtrend": 4686,
      "igens": 4687,
      "Ġdaraus": 4688,
      "Ġgeschrieben": 4689,
      "Ġbrachte": 4690,
      "Ġstark": 4691,
      "ĠrealitÃ¤t": 4692,
      "ĠgegenÃ¼ber": 4693,
      "blick": 4694,
      "Ġsubject": 4695,
      "Ġlargest": 4696,
      "ĠstraÃŁen": 4697,
      "Ġkrankheit": 4698,
      "Ġpapier": 4699,
      "Ġemotional": 4700,
      "ĠfuÃŁ": 4701,
      "Ġgesamte": 4702,
      "Ġbemerken": 4703,
      "fs": 4704,
      "ios": 4705,
      "king": 4706,
      "kom": 4707,
      "ole": 4708,
      "zub": 4709,
      "Ġsustain": 4710,
      "Ġmc": 4711,
      "Ġfahren": 4712,
      "Ġincl": 4713,
      "Ġru": 4714,
      "veral": 4715,
      "aged": 4716,
      "Ġmiteinander": 4717,
      "Ġspan": 4718,
      "Ġnotice": 4719,
      "Ġgesprochen": 4720,
      "Ġfrank": 4721,
      "Ġatm": 4722,
      "Ġconscious": 4723,
      "Ġdemokrat": 4724,
      "Ġinterview": 4725,
      "Ġquad": 4726,
      "Ġrolle": 4727,
      "Ã¼ssel": 4728,
      "Ġresources": 4729,
      "rieb": 4730,
      "Ġproduce": 4731,
      "Ġcarry": 4732,
      "Ġnorm": 4733,
      "others": 4734,
      "Ġcross": 4735,
      "Ġverwendet": 4736,
      "Ġchanging": 4737,
      "Ġphysical": 4738,
      "cially": 4739,
      "Ġhundred": 4740,
      "Ġevidence": 4741,
      "Ġschreck": 4742,
      "Ġdorf": 4743,
      "ĠstÃ¤dte": 4744,
      "Ġextraordinary": 4745,
      "ael": 4746,
      "bten": 4747,
      "dom": 4748,
      "mmer": 4749,
      "tte": 4750,
      "Ġwild": 4751,
      "Ġeg": 4752,
      "Ġnut": 4753,
      "Ġnine": 4754,
      "Ġphen": 4755,
      "aren": 4756,
      "Ġcivil": 4757,
      "Ġbeyond": 4758,
      "menschen": 4759,
      "fert": 4760,
      "many": 4761,
      "Ġpreis": 4762,
      "Ġimposs": 4763,
      "Ġinstitution": 4764,
      "Ġregeln": 4765,
      "Ġerlau": 4766,
      "Ġfurther": 4767,
      "Ġsitting": 4768,
      "Ġmine": 4769,
      "Ġbreat": 4770,
      "Ġgiving": 4771,
      "Ġfel": 4772,
      "Ġnimmt": 4773,
      "Ġking": 4774,
      "ĠlÃ¤ndern": 4775,
      "del": 4776,
      "umb": 4777,
      "Ġnacht": 4778,
      "manchmal": 4779,
      "Ġpartner": 4780,
      "Ġtalked": 4781,
      "fÃ¼hr": 4782,
      "Ġrealized": 4783,
      "Ġwriting": 4784,
      "Ġbased": 4785,
      "dessen": 4786,
      "Ġmagnet": 4787,
      "Ġcrit": 4788,
      "ĠgrÃ¶ÃŁe": 4789,
      "ĠgrÃ¶ÃŁten": 4790,
      "zeugt": 4791,
      "Ġteachers": 4792,
      "Ġreligion": 4793,
      "oo": 4794,
      "stant": 4795,
      "arm": 4796,
      "Ġken": 4797,
      "Ġgeheim": 4798,
      "Ġvergangen": 4799,
      "ims": 4800,
      "Ġrid": 4801,
      "Ġalten": 4802,
      "Ġdoor": 4803,
      "abhÃ¤ng": 4804,
      "ikam": 4805,
      "Ġcomb": 4806,
      "Ġnachdenken": 4807,
      "Ġnachricht": 4808,
      "Ġcook": 4809,
      "Ġamong": 4810,
      "ford": 4811,
      "mehr": 4812,
      "vented": 4813,
      "Ġstandard": 4814,
      "Ġsorgen": 4815,
      "Ġfanden": 4816,
      "Ġcrazy": 4817,
      "Ġerfolgreich": 4818,
      "Ġmulti": 4819,
      "daher": 4820,
      "lad": 4821,
      "Ġtats": 4822,
      "Ġaw": 4823,
      "ĠsÃ¤": 4824,
      "Ġdimens": 4825,
      "Ġwife": 4826,
      "iell": 4827,
      "Ġnan": 4828,
      "Ġtod": 4829,
      "Ġwebs": 4830,
      "Ġsecurity": 4831,
      "schw": 4832,
      "bew": 4833,
      "Ġrules": 4834,
      "Ġled": 4835,
      "Ġformen": 4836,
      "Ã¤nge": 4837,
      "Ġcontr": 4838,
      "plan": 4839,
      "Ġroll": 4840,
      "Ġgewinnen": 4841,
      "nisse": 4842,
      "Ġziehen": 4843,
      "Ġsonst": 4844,
      "Ġrichtige": 4845,
      "Ġimpact": 4846,
      "Ġcertainly": 4847,
      "nehmer": 4848,
      "ca": 4849,
      "his": 4850,
      "hÃ¶r": 4851,
      "jen": 4852,
      "jem": 4853,
      "ove": 4854,
      "wÃ¤hrend": 4855,
      "yl": 4856,
      "ĠwÃ¼n": 4857,
      "stes": 4858,
      "stum": 4859,
      "Ġfab": 4860,
      "ussen": 4861,
      "Ġproper": 4862,
      "Ġexpen": 4863,
      "Ġsahen": 4864,
      "wohn": 4865,
      "bringen": 4866,
      "Ġbenef": 4867,
      "Ġbestimmt": 4868,
      "Ġiran": 4869,
      "Ġremark": 4870,
      "Ġafrican": 4871,
      "Ġrunter": 4872,
      "Ġurspr": 4873,
      "Ġrestaur": 4874,
      "Ġgroups": 4875,
      "Ġmathematik": 4876,
      "Ã¤lfte": 4877,
      "Ġschulen": 4878,
      "Ġwussten": 4879,
      "Ġargument": 4880,
      "Ġvoice": 4881,
      "Ġzero": 4882,
      "Ġfantastic": 4883,
      "Ġbirth": 4884,
      "Ġleidenschaft": 4885,
      "Ġfavorite": 4886,
      "fahr": 4887,
      "Ġsuffer": 4888,
      "Ġfisch": 4889,
      "Ġnar": 4890,
      "isierung": 4891,
      "ales": 4892,
      "Ġsele": 4893,
      "kehr": 4894,
      "Ġgras": 4895,
      "Ġblau": 4896,
      "Ġapart": 4897,
      "Ġshowed": 4898,
      "Ġmedical": 4899,
      "Ġsurger": 4900,
      "Ġsupposed": 4901,
      "Ġverlieren": 4902,
      "Ġcharacter": 4903,
      "ship": 4904,
      "Ġmaterials": 4905,
      "Ġdevelopment": 4906,
      "Ġhundreds": 4907,
      "Ġdefinition": 4908,
      "Ġerinnern": 4909,
      "Ġphilosoph": 4910,
      "Ġimpossible": 4911,
      "cen": 4912,
      "hnen": 4913,
      "lage": 4914,
      "Ġbase": 4915,
      "reg": 4916,
      "techn": 4917,
      "Ġlauf": 4918,
      "Ġseiten": 4919,
      "ica": 4920,
      "Ġgehe": 4921,
      "eins": 4922,
      "ĠunmÃ¶glich": 4923,
      "Ġerd": 4924,
      "imag": 4925,
      "Ġneigh": 4926,
      "Ġlived": 4927,
      "affe": 4928,
      "ikation": 4929,
      "Ġenc": 4930,
      "Ġconc": 4931,
      "Ġgraph": 4932,
      "Ġvorstellung": 4933,
      "Ġmeinung": 4934,
      "Ġblut": 4935,
      "Ġdrive": 4936,
      "Ġliegen": 4937,
      "Ġbiggest": 4938,
      "Ġfinde": 4939,
      "Ġbewegt": 4940,
      "Ġschlechte": 4941,
      "Ġgemeinschaft": 4942,
      "Ġenglisch": 4943,
      "Ġsprach": 4944,
      "fortunately": 4945,
      "Ġbleibt": 4946,
      "Ġkilled": 4947,
      "Ġmessage": 4948,
      "bildung": 4949,
      "Ġentfernt": 4950,
      "Ġsuggest": 4951,
      "Ġstellte": 4952,
      "Ġphenomen": 4953,
      "jemand": 4954,
      "kam": 4955,
      "ringen": 4956,
      "uellen": 4957,
      "Ġske": 4958,
      "Ġfoss": 4959,
      "osen": 4960,
      "Ġlu": 4961,
      "Ã¼hren": 4962,
      "Ġisrael": 4963,
      "Ġsequ": 4964,
      "Ġseveral": 4965,
      "Ġrechts": 4966,
      "Ġsoon": 4967,
      "ufe": 4968,
      "Ġwhatever": 4969,
      "ĠfrÃ¼h": 4970,
      "Ġasso": 4971,
      "Ġgross": 4972,
      "ĠplÃ¶tzlich": 4973,
      "Ġtragen": 4974,
      "Ġanymore": 4975,
      "ichtet": 4976,
      "Ġappl": 4977,
      "Ġtransport": 4978,
      "Ġslight": 4979,
      "Ġdangerous": 4980,
      "di": 4981,
      "eth": 4982,
      "ka": 4983,
      "krie": 4984,
      "rib": 4985,
      "sor": 4986,
      "yes": 4987,
      "Ġtaten": 4988,
      "Ġinvented": 4989,
      "Ġkal": 4990,
      "Ġanc": 4991,
      "Ġgegeben": 4992,
      "term": 4993,
      "Ġverlet": 4994,
      "genau": 4995,
      "Ġwashing": 4996,
      "Ġerr": 4997,
      "agieren": 4998,
      "Ġauss": 4999,
      "Ġamb": 5000,
      "Ġletzt": 5001,
      "Ġunseres": 5002,
      "Ġmeaning": 5003,
      "Ġsetzen": 5004,
      "licherweise": 5005,
      "Ã¤usch": 5006,
      "Ġcheck": 5007,
      "Ġfortschr": 5008,
      "Ġsorry": 5009,
      "zeichnet": 5010,
      "Ġdiagram": 5011,
      "Ġtype": 5012,
      "Ġgrenzen": 5013,
      "Ġreihe": 5014,
      "Ġsecret": 5015,
      "Ġeinfluss": 5016,
      "eff": 5017,
      "zÃ¼": 5018,
      "ĠtÃ¼r": 5019,
      "Ġsn": 5020,
      "Ġmad": 5021,
      "Ġbald": 5022,
      "Ġfem": 5023,
      "Ġtheorie": 5024,
      "Ġod": 5025,
      "Ġpush": 5026,
      "Ġinn": 5027,
      "Ġcrow": 5028,
      "teten": 5029,
      "Ġreact": 5030,
      "Ġreaktion": 5031,
      "einer": 5032,
      "schuld": 5033,
      "Ġsohn": 5034,
      "Ġzuerst": 5035,
      "Ġalive": 5036,
      "Ġability": 5037,
      "sequen": 5038,
      "Ġfranc": 5039,
      "Ã¤tzen": 5040,
      "iped": 5041,
      "Ġfeuer": 5042,
      "Ġfunction": 5043,
      "auten": 5044,
      "Ġmonaten": 5045,
      "Ġtechnologies": 5046,
      "ĠfÃ¼hl": 5047,
      "Ġerfunden": 5048,
      "Ġmodels": 5049,
      "Ġschneller": 5050,
      "Ġrespon": 5051,
      "ĠÃ¤hnlich": 5052,
      "Ġjourney": 5053,
      "Ġcomplicated": 5054,
      "lter": 5055,
      "pfl": 5056,
      "Ġsus": 5057,
      "Ġira": 5058,
      "ieg": 5059,
      "Ġhit": 5060,
      "Ġnucle": 5061,
      "oten": 5062,
      "Ġlose": 5063,
      "Ã¶st": 5064,
      "Ġstol": 5065,
      "ĠverÃ¶ff": 5066,
      "Ġalte": 5067,
      "ulpt": 5068,
      "Ġmovie": 5069,
      "Ġrock": 5070,
      "Ġtrag": 5071,
      "Ġtraum": 5072,
      "grup": 5073,
      "Ġdesigner": 5074,
      "ĠgrÃ¶ÃŁer": 5075,
      "Ġprotot": 5076,
      "Ġjemanden": 5077,
      "Ġsonnen": 5078,
      "Ġunterschiedliche": 5079,
      "ĠsÃ¼d": 5080,
      "Ġintrodu": 5081,
      "audience": 5082,
      "len": 5083,
      "vo": 5084,
      "zten": 5085,
      "Ġsu": 5086,
      "Ġmr": 5087,
      "ĠhÃ¤lfte": 5088,
      "Ġgh": 5089,
      "stit": 5090,
      "arten": 5091,
      "ingu": 5092,
      "Ġluck": 5093,
      "igent": 5094,
      "Ã¤fte": 5095,
      "Ġsearch": 5096,
      "Ġgezeigt": 5097,
      "Ġverurs": 5098,
      "tens": 5099,
      "weis": 5100,
      "Ġblog": 5101,
      "akes": 5102,
      "Ġdruck": 5103,
      "Ġindian": 5104,
      "Ġstars": 5105,
      "Ġbasic": 5106,
      "Ġasking": 5107,
      "Ġnummer": 5108,
      "ghter": 5109,
      "Ġwundersch": 5110,
      "Ġversuchte": 5111,
      "Ġpainting": 5112,
      "ĠnÃ¤her": 5113,
      "ĠmÃ¤nn": 5114,
      "Ġsquare": 5115,
      "Ġwhether": 5116,
      "afrika": 5117,
      "mic": 5118,
      "tter": 5119,
      "wart": 5120,
      "Ġdaher": 5121,
      "Ġwann": 5122,
      "Ġniger": 5123,
      "Ġvul": 5124,
      "Ġlist": 5125,
      "Ġtowards": 5126,
      "Ã¤ge": 5127,
      "erei": 5128,
      "Ġjen": 5129,
      "ils": 5130,
      "Ġverfol": 5131,
      "indern": 5132,
      "Ġzug": 5133,
      "ĠermÃ¶": 5134,
      "ets": 5135,
      "Ġexcept": 5136,
      "Ġinterpre": 5137,
      "Ġrain": 5138,
      "Ġtravel": 5139,
      "Ġhandelt": 5140,
      "Ġhinein": 5141,
      "Ġacco": 5142,
      "Ġexperien": 5143,
      "Ġwichtiger": 5144,
      "Ġfalls": 5145,
      "Ġbessere": 5146,
      "Ġbedro": 5147,
      "Ġteacher": 5148,
      "Ġwalking": 5149,
      "Ġposit": 5150,
      "Ġradio": 5151,
      "ĠgroÃŁartige": 5152,
      "Ġissues": 5153,
      "ĠverrÃ¼ckt": 5154,
      "Ġbewusstsein": 5155,
      "feld": 5156,
      "Ġbatter": 5157,
      "Ġvortrag": 5158,
      "Ġspirit": 5159,
      "Ġsleep": 5160,
      "Ġresponse": 5161,
      "bi": 5162,
      "oes": 5163,
      "ery": 5164,
      "erstens": 5165,
      "Ġwik": 5166,
      "Ġmention": 5167,
      "ased": 5168,
      "Ġgern": 5169,
      "itens": 5170,
      "ĠkÃ¤m": 5171,
      "Ġanw": 5172,
      "Ġlust": 5173,
      "Ġbein": 5174,
      "Ġzun": 5175,
      "Ġvergessen": 5176,
      "Ġalg": 5177,
      "essed": 5178,
      "Ġarme": 5179,
      "ably": 5180,
      "ada": 5181,
      "Ġ2000": 5182,
      "Ġdarwin": 5183,
      "manche": 5184,
      "Ġ400": 5185,
      "Ġspielt": 5186,
      "Ġ150": 5187,
      "schlag": 5188,
      "Ġeinzelne": 5189,
      "Ġflugzeug": 5190,
      "Ġpflanzen": 5191,
      "ruption": 5192,
      "gro": 5193,
      "nt": 5194,
      "Ġ$": 5195,
      "Ġtv": 5196,
      "Ġahnung": 5197,
      "atory": 5198,
      "Ġbacter": 5199,
      "Ġeast": 5200,
      "Ġpu": 5201,
      "isis": 5202,
      "Ġlat": 5203,
      "iest": 5204,
      "ĠgefÃ¼": 5205,
      "eines": 5206,
      "impan": 5207,
      "Ġrat": 5208,
      "ctors": 5209,
      "eless": 5210,
      "Ġabove": 5211,
      "Ġareas": 5212,
      "Ġdasselbe": 5213,
      "Ġworte": 5214,
      "ĠphÃ¤n": 5215,
      "Ġanyway": 5216,
      "conds": 5217,
      "Ġdisk": 5218,
      "Ġmedikam": 5219,
      "Ġcarbon": 5220,
      "Ġfarm": 5221,
      "Ġprofit": 5222,
      "abel": 5223,
      "jedes": 5224,
      "Ġarchitecture": 5225,
      "Ġerstaunlich": 5226,
      "ĠoberflÃ¤che": 5227,
      "Ġverstanden": 5228,
      "Ġtiny": 5229,
      "Ġmedicine": 5230,
      "Ġatmosph": 5231,
      "19": 5232,
      "ĠwÃ¼": 5233,
      "ances": 5234,
      "ony": 5235,
      "ores": 5236,
      "Ġsepar": 5237,
      "Ġruss": 5238,
      "verty": 5239,
      "Ġneun": 5240,
      "Ġaussieht": 5241,
      "ables": 5242,
      "Ġattra": 5243,
      "Ġshar": 5244,
      "ĠmaÃŁ": 5245,
      "ĠgrÃ¼": 5246,
      "ously": 5247,
      "Ġihres": 5248,
      "ĠflÃ¼": 5249,
      "Ġsonne": 5250,
      "Ġvoller": 5251,
      "Ġbuchst": 5252,
      "ĠauÃŁergewÃ¶hn": 5253,
      "Ġexcited": 5254,
      "medi": 5255,
      "ĠfÃ¤higkeiten": 5256,
      "Ġschwarz": 5257,
      "Ġavail": 5258,
      "Ġfrancis": 5259,
      "hood": 5260,
      "kb": 5261,
      "Ġtur": 5262,
      "Ġdah": 5263,
      "Ġmental": 5264,
      "Ġbakter": 5265,
      "ston": 5266,
      "osystem": 5267,
      "Ġansehen": 5268,
      "altet": 5269,
      "ĠstÃ¤ndig": 5270,
      "ierungen": 5271,
      "Ġdenkt": 5272,
      "Ġheim": 5273,
      "Ġtrotzdem": 5274,
      "Ġkonzept": 5275,
      "aking": 5276,
      "Ġhandeln": 5277,
      "Ġskin": 5278,
      "Ġpolitik": 5279,
      "Ġentwickel": 5280,
      "Ġreturn": 5281,
      "Ġlinie": 5282,
      "Ġentwicklungs": 5283,
      "Ġjournal": 5284,
      "Ġocc": 5285,
      "Ġrepresent": 5286,
      "ius": 5287,
      "Ġdeine": 5288,
      "unser": 5289,
      "ĠhÃ¤lt": 5290,
      "Ġinvolved": 5291,
      "Ġvac": 5292,
      "Ġvict": 5293,
      "ray": 5294,
      "rage": 5295,
      "Ġgekommen": 5296,
      "Ġgeorge": 5297,
      "ilities": 5298,
      "Ġonto": 5299,
      "ctions": 5300,
      "Ġleist": 5301,
      "Ġdog": 5302,
      "Ġwarten": 5303,
      "again": 5304,
      "Ġfrie": 5305,
      "nete": 5306,
      "Ġplat": 5307,
      "Ġvoraus": 5308,
      "Ġ23": 5309,
      "ippe": 5310,
      "werfen": 5311,
      "Ġpoints": 5312,
      "grÃ¶ÃŁ": 5313,
      "gendes": 5314,
      "Ġinteressante": 5315,
      "david": 5316,
      "ĠÃ¤lter": 5317,
      "Ġdreht": 5318,
      "Ġconnected": 5319,
      "krank": 5320,
      "Ġdistrib": 5321,
      "Ġcalcul": 5322,
      "ultural": 5323,
      "Ġnerv": 5324,
      "Ġerkennt": 5325,
      "Ġappear": 5326,
      "Ġfundamental": 5327,
      "bung": 5328,
      "ded": 5329,
      "fern": 5330,
      "ikel": 5331,
      "oÃŁ": 5332,
      "satz": 5333,
      "Ġtree": 5334,
      "Ġfit": 5335,
      "org": 5336,
      "legt": 5337,
      "Ġca": 5338,
      "aly": 5339,
      "Ġlapt": 5340,
      "Ġgek": 5341,
      "schir": 5342,
      "Ġschrieb": 5343,
      "Ġress": 5344,
      "vert": 5345,
      "Ġchines": 5346,
      "Ġmanche": 5347,
      "Ġliber": 5348,
      "Ġmyth": 5349,
      "Ġenjo": 5350,
      "Ġdete": 5351,
      "Ġbrand": 5352,
      "Ġgeschah": 5353,
      "spe": 5354,
      "ĠnatÃ¼r": 5355,
      "Ġended": 5356,
      "ĠÃ¶k": 5357,
      "Ġnamed": 5358,
      "Ġexplor": 5359,
      "Ġurban": 5360,
      "Ġmetaph": 5361,
      "Ġclean": 5362,
      "legenheit": 5363,
      "Ġebenfalls": 5364,
      "Ġattack": 5365,
      "Ġleaders": 5366,
      "Ġgruppen": 5367,
      "imensional": 5368,
      "Ġforschung": 5369,
      "Ġindeed": 5370,
      "Ġscreen": 5371,
      "Ġremarkable": 5372,
      "bis": 5373,
      "nam": 5374,
      "part": 5375,
      "rate": 5376,
      "asing": 5377,
      "Ġpf": 5378,
      "eden": 5379,
      "ragt": 5380,
      "racy": 5381,
      "umm": 5382,
      "Ġverst": 5383,
      "Ġschne": 5384,
      "elte": 5385,
      "Ġforest": 5386,
      "Ġmitte": 5387,
      "Ġcha": 5388,
      "Ġworry": 5389,
      "Ġdeb": 5390,
      "idet": 5391,
      "Ã¶rter": 5392,
      "Ġtrack": 5393,
      "Ġpoverty": 5394,
      "Ġempf": 5395,
      "Ġarbeitet": 5396,
      "Ġtells": 5397,
      "Ġuhr": 5398,
      "Ġcapital": 5399,
      "Ġbeauty": 5400,
      "Ġsprachen": 5401,
      "Ġbabies": 5402,
      "Ġprinci": 5403,
      "stÃ¤ndig": 5404,
      "Ġsuccessful": 5405,
      "Ġpredict": 5406,
      "ĠÂ«": 5407,
      "Ġsafe": 5408,
      "ĠfrÃ¼her": 5409,
      "Ġsekunden": 5410,
      "bur": 5411,
      "oid": 5412,
      "uals": 5413,
      "zig": 5414,
      "Ġut": 5415,
      "itor": 5416,
      "Ġcause": 5417,
      "Ġkaum": 5418,
      "teile": 5419,
      "Ġanzahl": 5420,
      "use": 5421,
      "entw": 5422,
      "Ġgewe": 5423,
      "Ġlegs": 5424,
      "uchten": 5425,
      "Ġgoal": 5426,
      "dass": 5427,
      "Ġsomewhere": 5428,
      "Ġplant": 5429,
      "Ġmachines": 5430,
      "Ġgenes": 5431,
      "Ġprison": 5432,
      "Ġperspect": 5433,
      "Ġwritten": 5434,
      "Ġschlaf": 5435,
      "Ġkreis": 5436,
      "Ġprojects": 5437,
      "ĠstraÃŁe": 5438,
      "Ġarmut": 5439,
      "Ġbegannen": 5440,
      "Ġbeziehung": 5441,
      "publikum": 5442,
      "wirkungen": 5443,
      "Ġkrankenhaus": 5444,
      "ĠbevÃ¶lkerung": 5445,
      "windigkeit": 5446,
      "Ġwebsite": 5447,
      "ober": 5448,
      "time": 5449,
      "Ġere": 5450,
      "ered": 5451,
      "Ġwol": 5452,
      "Ġmessen": 5453,
      "Ġhang": 5454,
      "Ġburn": 5455,
      "Ġgal": 5456,
      "Ġegal": 5457,
      "Ġoffer": 5458,
      "Ã¤te": 5459,
      "rad": 5460,
      "Ã¶se": 5461,
      "Ġstamm": 5462,
      "ĠzufÃ¤": 5463,
      "Ġimmedi": 5464,
      "Ġspiele": 5465,
      "Ġgesp": 5466,
      "Ġtex": 5467,
      "Ġconfl": 5468,
      "Ġplants": 5469,
      "Ġnachhalt": 5470,
      "agement": 5471,
      "Ġmagaz": 5472,
      "Ġeffic": 5473,
      "Ġunderstanding": 5474,
      "Ġwundervoll": 5475,
      "zahlen": 5476,
      "holen": 5477,
      "Ġscientific": 5478,
      "Ġrichard": 5479,
      "ĠÃ¼berraschen": 5480,
      "Ġvereinigten": 5481,
      "Ġgolf": 5482,
      "Ġoriginal": 5483,
      "Ġseltsam": 5484,
      "Ġumgebung": 5485,
      "Ġsurgery": 5486,
      "Ġavailable": 5487,
      "fach": 5488,
      "kommt": 5489,
      "uern": 5490,
      "vide": 5491,
      "Ġdance": 5492,
      "iegel": 5493,
      "asen": 5494,
      "aria": 5495,
      "Ġcat": 5496,
      "Ġcard": 5497,
      "Ġvan": 5498,
      "Ġanges": 5499,
      "ickt": 5500,
      "Ġgearbeitet": 5501,
      "Ġjud": 5502,
      "Ġderen": 5503,
      "Ġlehr": 5504,
      "Ġlebt": 5505,
      "Ġsport": 5506,
      "Ġspect": 5507,
      "Ġheutzutage": 5508,
      "ulate": 5509,
      "afft": 5510,
      "ika": 5511,
      "Ġshot": 5512,
      "Ġsaving": 5513,
      "Ġmenschheit": 5514,
      "Ġque": 5515,
      "Ġperfor": 5516,
      "Ġmillions": 5517,
      "rieden": 5518,
      "program": 5519,
      "Ġmonat": 5520,
      "Ġshowing": 5521,
      "Ġsolve": 5522,
      "Ġsolchen": 5523,
      "Ġtranspar": 5524,
      "ĠerzÃ¤hlt": 5525,
      "underte": 5526,
      "Ġcentral": 5527,
      "Ġ99": 5528,
      "Ġphysik": 5529,
      "Ġcamera": 5530,
      "ĠhÃ¶he": 5531,
      "Ġentdeckt": 5532,
      "Ġbetrachte": 5533,
      "Ġproducts": 5534,
      "Ġakzept": 5535,
      "Ġbeobachten": 5536,
      "ditions": 5537,
      "Ġalternative": 5538,
      "Ġtumor": 5539,
      "ĠschÃ¼ler": 5540,
      "Ġexpensive": 5541,
      "imagine": 5542,
      "Ġslightly": 5543,
      "ĠphÃ¤nomen": 5544,
      "30": 5545,
      "bald": 5546,
      "did": 5547,
      "ften": 5548,
      "hi": 5549,
      "sometimes": 5550,
      "ences": 5551,
      "Ġaustr": 5552,
      "Ġsource": 5553,
      "Ġhart": 5554,
      "recht": 5555,
      "Ġfangen": 5556,
      "orben": 5557,
      "apher": 5558,
      "tex": 5559,
      "ĠlÃ¤ch": 5560,
      "Ġseconds": 5561,
      "rob": 5562,
      "ctures": 5563,
      "ille": 5564,
      "Ġworse": 5565,
      "antwor": 5566,
      "aff": 5567,
      "Ġorg": 5568,
      "ourcen": 5569,
      "Ġdritten": 5570,
      "Ġclim": 5571,
      "Ġkostet": 5572,
      "design": 5573,
      "Ġgradu": 5574,
      "Ġdachten": 5575,
      "Ġrobots": 5576,
      "Ġfacebook": 5577,
      "Ġleader": 5578,
      "Ġaffect": 5579,
      "Ġriesige": 5580,
      "ĠkÃ¼mmer": 5581,
      "Ġindustrie": 5582,
      "Ġsozialen": 5583,
      "Ġrecognize": 5584,
      "Ġpolicy": 5585,
      "ĠbÃ¼rger": 5586,
      "han": 5587,
      "mich": 5588,
      "macht": 5589,
      "tschafts": 5590,
      "erte": 5591,
      "char": 5592,
      "Ġbaum": 5593,
      "itude": 5594,
      "andel": 5595,
      "Ã¤chen": 5596,
      "Ġhaut": 5597,
      "Ġrise": 5598,
      "etzen": 5599,
      "inken": 5600,
      "Ġdemon": 5601,
      "Ġetc": 5602,
      "Ġzweiten": 5603,
      "Ġweltweit": 5604,
      "Ã¼ss": 5605,
      "Ġresults": 5606,
      "Ġspezie": 5607,
      "fÃ¼hren": 5608,
      "Ġgebracht": 5609,
      "thanks": 5610,
      "Ġeinzig": 5611,
      "Ġslide": 5612,
      "Ġwelches": 5613,
      "Ġcharles": 5614,
      "vention": 5615,
      "Ġcapt": 5616,
      "Ġwunderbar": 5617,
      "zwei": 5618,
      "ĠbÃ¼ro": 5619,
      "vision": 5620,
      "Ġsurprising": 5621,
      "ĠfÃ¼hrte": 5622,
      "Ġperfekt": 5623,
      "Ġdinosaur": 5624,
      "ength": 5625,
      "Ġinfluen": 5626,
      "Ġinterpret": 5627,
      "hh": 5628,
      "iam": 5629,
      "la": 5630,
      "mir": 5631,
      "over": 5632,
      "Ġwire": 5633,
      "asa": 5634,
      "Ġgang": 5635,
      "Ġtheater": 5636,
      "Ġnutz": 5637,
      "Ġcele": 5638,
      "Ġkore": 5639,
      "Ġkno": 5640,
      "Ġlag": 5641,
      "ĠlÃ¤uft": 5642,
      "Ã¤st": 5643,
      "ierter": 5644,
      "iles": 5645,
      "Ġuner": 5646,
      "Ġest": 5647,
      "ctive": 5648,
      "anne": 5649,
      "Ġheut": 5650,
      "Ġconstru": 5651,
      "ferenz": 5652,
      "Ġquality": 5653,
      "Ġbrust": 5654,
      "werden": 5655,
      "Ġfirma": 5656,
      "Ġreser": 5657,
      "Ġproduction": 5658,
      "Ġschlimm": 5659,
      "Ġtrees": 5660,
      "ĠnÃ¤chstes": 5661,
      "Ġoppos": 5662,
      "schluss": 5663,
      "Ġharv": 5664,
      "Ġfaster": 5665,
      "Ġrichtigen": 5666,
      "Ã¤umen": 5667,
      "Ġobjects": 5668,
      "Ġlistening": 5669,
      "Ġantworten": 5670,
      "Ġcelebr": 5671,
      "500": 5672,
      "buch": 5673,
      "ya": 5674,
      "Ġ0": 5675,
      "Ġsad": 5676,
      "Ġdiv": 5677,
      "Ġthreat": 5678,
      "apes": 5679,
      "Ġlok": 5680,
      "room": 5681,
      "icle": 5682,
      "berg": 5683,
      "indust": 5684,
      "ĠunabhÃ¤ng": 5685,
      "schte": 5686,
      "Ġran": 5687,
      "istisch": 5688,
      "Ġchir": 5689,
      "ades": 5690,
      "Ġatl": 5691,
      "Ġmyster": 5692,
      "esehen": 5693,
      "Ġuses": 5694,
      "Ġusually": 5695,
      "Ġnachbar": 5696,
      "akistan": 5697,
      "Ã¼nft": 5698,
      "pecially": 5699,
      "ĠgewÃ¶hn": 5700,
      "brit": 5701,
      "Ġfreed": 5702,
      "mode": 5703,
      "ĠschÃ¶nheit": 5704,
      "Ġsmaller": 5705,
      "Ġirgendwo": 5706,
      "Ã¼hne": 5707,
      "Ġnahe": 5708,
      "Ġhundert": 5709,
      "stoffe": 5710,
      "Ġhyper": 5711,
      "Ġparticularly": 5712,
      "Ġprofessor": 5713,
      "Ġuntersuchen": 5714,
      "Ġnuclear": 5715,
      "blich": 5716,
      "hungen": 5717,
      "lungen": 5718,
      "num": 5719,
      "oft": 5720,
      "pet": 5721,
      "ued": 5722,
      "zi": 5723,
      "Ġug": 5724,
      "erin": 5725,
      "ĠhÃ¶rt": 5726,
      "Ġgall": 5727,
      "repr": 5728,
      "orith": 5729,
      "Ġlaut": 5730,
      "entliche": 5731,
      "Ġzustand": 5732,
      "imal": 5733,
      "Ġrap": 5734,
      "Ġabstra": 5735,
      "Ġcontext": 5736,
      "Ġmale": 5737,
      "Ġ22": 5738,
      "play": 5739,
      "Ġactivity": 5740,
      "Ġbrief": 5741,
      "ĠfÃ¼hle": 5742,
      "ĠgefÃ¤ng": 5743,
      "Ġgefragt": 5744,
      "Ġbasis": 5745,
      "Ġgrav": 5746,
      "Ġexperiments": 5747,
      "Ġsorts": 5748,
      "Ġcamp": 5749,
      "Ġfascin": 5750,
      "Ġpieces": 5751,
      "ĠgrÃ¼nden": 5752,
      "ĠmolekÃ¼": 5753,
      "Ġmicros": 5754,
      "damit": 5755,
      "Ġvertrauen": 5756,
      "Ġverbessern": 5757,
      "unehmen": 5758,
      "Ġolder": 5759,
      "industrie": 5760,
      "dy": 5761,
      "dort": 5762,
      "iod": 5763,
      "va": 5764,
      "wann": 5765,
      "Ã©": 5766,
      "Ġsite": 5767,
      "Ġgent": 5768,
      "stud": 5769,
      "Ġnone": 5770,
      "ara": 5771,
      "oming": 5772,
      "ragen": 5773,
      "Ġros": 5774,
      "Ġforget": 5775,
      "ify": 5776,
      "Ġspricht": 5777,
      "Ġheil": 5778,
      "ienst": 5779,
      "Ġorten": 5780,
      "astrop": 5781,
      "assung": 5782,
      "Ġnachzu": 5783,
      "Ã¤tzlich": 5784,
      "Ġstarb": 5785,
      "Ġrealize": 5786,
      "Ġgebra": 5787,
      "Ġgeburt": 5788,
      "Ġbefindet": 5789,
      "Ġuseful": 5790,
      "Ġkept": 5791,
      "Ġbuildings": 5792,
      "Ġlarger": 5793,
      "arbeiten": 5794,
      "Ġbestehen": 5795,
      "Ġengland": 5796,
      "ĠerwÃ¤": 5797,
      "Ġarchitektur": 5798,
      "take": 5799,
      "Ġafford": 5800,
      "Ġflying": 5801,
      "Ġtruly": 5802,
      "Ġtraditional": 5803,
      "Ġrandom": 5804,
      "ĠhÃ¶rte": 5805,
      "Ġproduzieren": 5806,
      "ĠÃ¼brigens": 5807,
      "Ġsuddenly": 5808,
      "Ġfrieden": 5809,
      "Ġperspective": 5810,
      "bu": 5811,
      "glie": 5812,
      "hil": 5813,
      "nor": 5814,
      "oke": 5815,
      "pat": 5816,
      "rich": 5817,
      "xis": 5818,
      "Ġaid": 5819,
      "Ġwinter": 5820,
      "ĠnÃ¼t": 5821,
      "orien": 5822,
      "Ġinf": 5823,
      "ĠkÃ¼r": 5824,
      "Ġkern": 5825,
      "Ġangel": 5826,
      "Ġtown": 5827,
      "thin": 5828,
      "iling": 5829,
      "eles": 5830,
      "Ġmeist": 5831,
      "Ġmeant": 5832,
      "Ġtrouble": 5833,
      "Ġvorstell": 5834,
      "ĠprÃ¤sent": 5835,
      "Ġbrains": 5836,
      "ergie": 5837,
      "Ġstudio": 5838,
      "Ġbefinden": 5839,
      "lesen": 5840,
      "Ġcreating": 5841,
      "Ġvideos": 5842,
      "zeitig": 5843,
      "Ġafrikan": 5844,
      "Ġcosts": 5845,
      "Ġbelow": 5846,
      "Ġtitel": 5847,
      "zustellen": 5848,
      "zwischen": 5849,
      "Ġehrlich": 5850,
      "Ġschmerz": 5851,
      "Ġwashington": 5852,
      "Ġdemonstr": 5853,
      "hel": 5854,
      "hme": 5855,
      "kan": 5856,
      "pfe": 5857,
      "ration": 5858,
      "sind": 5859,
      "van": 5860,
      "zur": 5861,
      "erz": 5862,
      "Ġtour": 5863,
      "Ġtanz": 5864,
      "Ġwal": 5865,
      "Ġban": 5866,
      "ason": 5867,
      "Ġgift": 5868,
      "ittel": 5869,
      "arf": 5870,
      "aper": 5871,
      "lei": 5872,
      "Ġinnen": 5873,
      "Ġvalle": 5874,
      "Ġanschauen": 5875,
      "kein": 5876,
      "Ġrece": 5877,
      "Ġleisten": 5878,
      "Ġdoc": 5879,
      "Ġdoctor": 5880,
      "Ġmod": 5881,
      "Ġexpress": 5882,
      "ahlt": 5883,
      "ĠkÃ¶nig": 5884,
      "Ġdemand": 5885,
      "Ġprior": 5886,
      "Ġrole": 5887,
      "Ġperiod": 5888,
      "ĠmÃ¶glichen": 5889,
      "selbst": 5890,
      "Ġfirmen": 5891,
      "Ġdisapp": 5892,
      "Ġaccept": 5893,
      "tragen": 5894,
      "Ġfinal": 5895,
      "Ġhimmel": 5896,
      "Ġinstall": 5897,
      "Ġcrisis": 5898,
      "board": 5899,
      "Ġcreative": 5900,
      "Ġphysics": 5901,
      "imeter": 5902,
      "jede": 5903,
      "Ġbrown": 5904,
      "Ġsinne": 5905,
      "Ġemotion": 5906,
      "Ġentdecken": 5907,
      "ĠernÃ¤hr": 5908,
      "Ġintu": 5909,
      "Ġeinzelnen": 5910,
      "Ġamerikanischen": 5911,
      "Ġempath": 5912,
      "Ġtwitter": 5913,
      "Ġservice": 5914,
      "Ġmilitary": 5915,
      "Ġeventually": 5916,
      "niemand": 5917,
      "Ġglamour": 5918,
      "Ġgentle": 5919,
      "bÃ¼": 5920,
      "gin": 5921,
      "pag": 5922,
      "val": 5923,
      "wers": 5924,
      "yed": 5925,
      "inde": 5926,
      "Ġahead": 5927,
      "ĠhÃ¤uf": 5928,
      "Ġeure": 5929,
      "Ġkm": 5930,
      "Ġanwend": 5931,
      "Ġtolle": 5932,
      "Ġtochter": 5933,
      "Ġyellow": 5934,
      "Ġweight": 5935,
      "Ġislam": 5936,
      "indungen": 5937,
      "annien": 5938,
      "Ġlik": 5939,
      "Ġtrial": 5940,
      "Ġactual": 5941,
      "izes": 5942,
      "ological": 5943,
      "Ġagric": 5944,
      "Ġcompon": 5945,
      "Ġselten": 5946,
      "Ġtagen": 5947,
      "pected": 5948,
      "Ġtechnologien": 5949,
      "Ġlandes": 5950,
      "ĠauÃŁen": 5951,
      "Ġschlag": 5952,
      "Ġfamous": 5953,
      "Ġkampf": 5954,
      "Ã¼tter": 5955,
      "Ġremain": 5956,
      "Ġcollabor": 5957,
      "attle": 5958,
      "Ġelectr": 5959,
      "Ã¤user": 5960,
      "Ġunglaubliche": 5961,
      "mark": 5962,
      "Ġebene": 5963,
      "tember": 5964,
      "Ġoperation": 5965,
      "wissenschaft": 5966,
      "Ġchoose": 5967,
      "Ġmeeting": 5968,
      "Ġnerven": 5969,
      "Ġamerikaner": 5970,
      "Ġgenetic": 5971,
      "welche": 5972,
      "Ġabend": 5973,
      "Ġkreativ": 5974,
      "Ġgesetz": 5975,
      "Ġachieve": 5976,
      "bauen": 5977,
      "ox": 5978,
      "wahr": 5979,
      "zimmer": 5980,
      "Ġwieso": 5981,
      "Ġfill": 5982,
      "Ġpakistan": 5983,
      "leute": 5984,
      "unds": 5985,
      "Ġangeb": 5986,
      "Ġbez": 5987,
      "Ġbeat": 5988,
      "Ġstock": 5989,
      "ilien": 5990,
      "verstÃ¤nd": 5991,
      "Ġspl": 5992,
      "Ġnotwend": 5993,
      "Ġgeschafft": 5994,
      "keiten": 5995,
      "Ġkonsum": 5996,
      "Ġdrink": 5997,
      "acity": 5998,
      "Ġzusammenh": 5999,
      "Ġbedeuten": 6000,
      "Ġearl": 6001,
      "Ġfarbe": 6002,
      "Ġerstes": 6003,
      "ĠberÃ¼h": 6004,
      "ception": 6005,
      "Ġdipl": 6006,
      "Ġsignific": 6007,
      "Ġphoto": 6008,
      "Ġretten": 6009,
      "Ġnormalerweise": 6010,
      "ĠuniversitÃ¤t": 6011,
      "Ġstaat": 6012,
      "Ġgesundheits": 6013,
      "zusch": 6014,
      "Ġprivate": 6015,
      "mutter": 6016,
      "Ġmethode": 6017,
      "Ġtemperature": 6018,
      "Ġepide": 6019,
      "Ġeuropa": 6020,
      "jenigen": 6021,
      "reprene": 6022,
      "yle": 6023,
      "zungen": 6024,
      "atte": 6025,
      "ativen": 6026,
      "Ġfat": 6027,
      "Ġnahrung": 6028,
      "Ġvent": 6029,
      "tech": 6030,
      "Ġhaup": 6031,
      "umen": 6032,
      "Ġdenk": 6033,
      "Ġaufgenommen": 6034,
      "auern": 6035,
      "sehr": 6036,
      "second": 6037,
      "Ġmanip": 6038,
      "antic": 6039,
      "Ġorte": 6040,
      "uted": 6041,
      "Ġuntersche": 6042,
      "Ġspekt": 6043,
      "Ġdisc": 6044,
      "Ġfunny": 6045,
      "Ġmalaria": 6046,
      "Ġnieder": 6047,
      "isms": 6048,
      "Ġweiteres": 6049,
      "Ġautom": 6050,
      "does": 6051,
      "Ġverlassen": 6052,
      "gefangen": 6053,
      "ĠschÃ¶ne": 6054,
      "Ġexpon": 6055,
      "ĠhÃ¶ch": 6056,
      "geschichte": 6057,
      "Ġdeveloping": 6058,
      "Ġverkaufen": 6059,
      "Ġmolec": 6060,
      "Ġergebnisse": 6061,
      "ĠfÃ¤llt": 6062,
      "Ġimprove": 6063,
      "Ġessentially": 6064,
      "Ġkolle": 6065,
      "Ġallowed": 6066,
      "Ġspezies": 6067,
      "Ġpunkte": 6068,
      "Ġenormous": 6069,
      "Ġconversation": 6070,
      "mission": 6071,
      "ĠwunderschÃ¶n": 6072,
      "Ġalgorith": 6073,
      "Ġperforman": 6074,
      "britannien": 6075,
      "200": 6076,
      "frieden": 6077,
      "erung": 6078,
      "Ġwow": 6079,
      "Ġmur": 6080,
      "Ġmember": 6081,
      "Ġgilt": 6082,
      "sta": 6083,
      "itung": 6084,
      "Ġcru": 6085,
      "Ġeinander": 6086,
      "Ġwechsel": 6087,
      "rochen": 6088,
      "ammt": 6089,
      "Ġespecially": 6090,
      "bewer": 6091,
      "verse": 6092,
      "ety": 6093,
      "ago": 6094,
      "uls": 6095,
      "Ġfrustr": 6096,
      "ielten": 6097,
      "Ġvorbei": 6098,
      "Ġherunter": 6099,
      "steht": 6100,
      "Ġgetroffen": 6101,
      "Ġentreprene": 6102,
      "zens": 6103,
      "Ġactiv": 6104,
      "izz": 6105,
      "ipp": 6106,
      "Ġnochmal": 6107,
      "Ġraise": 6108,
      "Ġbegonnen": 6109,
      "Ġmehrere": 6110,
      "Ġliebl": 6111,
      "Ġ35": 6112,
      "Ġgebiet": 6113,
      "Ġniedr": 6114,
      "Ġlandwirtschaft": 6115,
      "Ġschluss": 6116,
      "Ġbiom": 6117,
      "Ġfamiliar": 6118,
      "Ġeinzigen": 6119,
      "Ġforms": 6120,
      "Ġreading": 6121,
      "everybody": 6122,
      "Ġwestern": 6123,
      "Ġfotograf": 6124,
      "Ġdaughter": 6125,
      "Ġmaschinen": 6126,
      "ĠerhÃ¶": 6127,
      "Ġsummer": 6128,
      "Ġsurvive": 6129,
      "Ġhigher": 6130,
      "maschine": 6131,
      "Ġbemerkens": 6132,
      "Ġinclud": 6133,
      "Ġpuzz": 6134,
      "Ġfreedom": 6135,
      "Ġvalley": 6136,
      "dro": 6137,
      "ground": 6138,
      "hem": 6139,
      "last": 6140,
      "sichtig": 6141,
      "talk": 6142,
      "wk": 6143,
      "Ġtaught": 6144,
      "ĠwÃ¶rter": 6145,
      "Ġthrow": 6146,
      "ieÃŁ": 6147,
      "onom": 6148,
      "Ġberg": 6149,
      "stÃ¼ck": 6150,
      "Ġpet": 6151,
      "Ġpac": 6152,
      "Ġingen": 6153,
      "Ġcatch": 6154,
      "Ġkol": 6155,
      "Ġkenne": 6156,
      "key": 6157,
      "ĠverstÃ¤nd": 6158,
      "indest": 6159,
      "Ġschm": 6160,
      "Ġrund": 6161,
      "Ġunsicht": 6162,
      "mend": 6163,
      "artig": 6164,
      "Ġconstant": 6165,
      "Ġconditions": 6166,
      "Ġentschieden": 6167,
      "Ġquant": 6168,
      "tocin": 6169,
      "Ġkonfl": 6170,
      "werke": 6171,
      "Ġtraf": 6172,
      "schiede": 6173,
      "Ġemploy": 6174,
      "barkeit": 6175,
      "Ġmedium": 6176,
      "trag": 6177,
      "Ġpersonen": 6178,
      "Ġirgende": 6179,
      "Ġanti": 6180,
      "Ġputting": 6181,
      "Ġhimself": 6182,
      "Ġorganization": 6183,
      "Ġfallen": 6184,
      "Ġseries": 6185,
      "Ġ75": 6186,
      "Ġtests": 6187,
      "Ġneurons": 6188,
      "Ġintelligent": 6189,
      "Ġnahmen": 6190,
      "Ġhotel": 6191,
      "Ġfreiheit": 6192,
      "Ġmerk": 6193,
      "ĠÃ¤ndert": 6194,
      "Ġauthor": 6195,
      "Ġvergangenheit": 6196,
      "Ġassoci": 6197,
      "sk": 6198,
      "sm": 6199,
      "would": 6200,
      "Ġdivers": 6201,
      "esch": 6202,
      "Ġhinge": 6203,
      "Ġpassen": 6204,
      "ingungen": 6205,
      "Ġcry": 6206,
      "ĠkÃ¤": 6207,
      "Ġanp": 6208,
      "Ġanzu": 6209,
      "irgend": 6210,
      "Ã¼ben": 6211,
      "omas": 6212,
      "iced": 6213,
      "icians": 6214,
      "iesen": 6215,
      "Ġunge": 6216,
      "Ġwaste": 6217,
      "Ġerzeugen": 6218,
      "cell": 6219,
      "Ġimmun": 6220,
      "Ġworten": 6221,
      "Ġcommit": 6222,
      "Ġdepression": 6223,
      "olly": 6224,
      "Ġvorh": 6225,
      "Ġherstellen": 6226,
      "ĠprÃ¤": 6227,
      "Ġdarf": 6228,
      "Ġbrings": 6229,
      "ardo": 6230,
      "Ġkontin": 6231,
      "Ġphosph": 6232,
      "prÃ¼": 6233,
      "Ġboard": 6234,
      "ients": 6235,
      "Ġklasse": 6236,
      "Ġ194": 6237,
      "grÃ¼n": 6238,
      "bruch": 6239,
      "Ġsolutions": 6240,
      "Ġgreatest": 6241,
      "Ġkrit": 6242,
      "teilen": 6243,
      "Ġinteresse": 6244,
      "Ġinvent": 6245,
      "Ġ600": 6246,
      "ĠberÃ¼": 6247,
      "Ġglobale": 6248,
      "Ġcontent": 6249,
      "Ġbush": 6250,
      "Ġprofound": 6251,
      "Ġexpand": 6252,
      "Ġcampa": 6253,
      "Ġstraight": 6254,
      "Ġterrible": 6255,
      "Ġtelefon": 6256,
      "Ġcontinue": 6257,
      "Ġinfrastruktur": 6258,
      "Ġinfrastructure": 6259,
      "Ġentscheidungen": 6260,
      "Ġignor": 6261,
      "ĠmÃ¼ll": 6262,
      "Ġindustrial": 6263,
      "Ġfrancisco": 6264,
      "Ġressourcen": 6265,
      "Ġcampaign": 6266,
      "bil": 6267,
      "kann": 6268,
      "sweise": 6269,
      "Ġdouble": 6270,
      "Ġwil": 6271,
      "anter": 6272,
      "Ġmort": 6273,
      "ieÃŁen": 6274,
      "Ġhop": 6275,
      "Ġbub": 6276,
      "Ġbought": 6277,
      "Ġles": 6278,
      "Ġwirtschafts": 6279,
      "Ġstore": 6280,
      "Ġreicht": 6281,
      "ĠschÃ¶": 6282,
      "Ġleid": 6283,
      "uster": 6284,
      "ahrungs": 6285,
      "Ġentstand": 6286,
      "Ġcooper": 6287,
      "Ġqual": 6288,
      "ption": 6289,
      "Ġrights": 6290,
      "Ġverbinden": 6291,
      "Ġhole": 6292,
      "ĠfÃ¼hlt": 6293,
      "Ġprodukte": 6294,
      "actually": 6295,
      "Ġ45": 6296,
      "Ġbeings": 6297,
      "Ġgrad": 6298,
      "Ġdrehen": 6299,
      "Ġthanks": 6300,
      "front": 6301,
      "Ġamericans": 6302,
      "Ġmatters": 6303,
      "Ġrespect": 6304,
      "Ġtypes": 6305,
      "ĠÃ¶ffentlich": 6306,
      "Ġbrauche": 6307,
      "Ġdorthin": 6308,
      "Ġcommunication": 6309,
      "Ġmobile": 6310,
      "Ġsommer": 6311,
      "Ġdetails": 6312,
      "Ġhypoth": 6313,
      "Ġcurrent": 6314,
      "Ġneighbor": 6315,
      "ĠfÃ¼hlte": 6316,
      "Ġmetaphor": 6317,
      "cope": 6318,
      "each": 6319,
      "far": 6320,
      "har": 6321,
      "iation": 6322,
      "sinn": 6323,
      "woll": 6324,
      "ĠdÃ¼r": 6325,
      "ĠbÃ¼hne": 6326,
      "Ġechte": 6327,
      "Ġfett": 6328,
      "Ġoly": 6329,
      "Ġintr": 6330,
      "Ġcold": 6331,
      "Ġweib": 6332,
      "Ã¶sen": 6333,
      "Ġreport": 6334,
      "Ġunique": 6335,
      "Ġerne": 6336,
      "ologen": 6337,
      "Ġnehme": 6338,
      "ceed": 6339,
      "auÃŁer": 6340,
      "Ġausdruck": 6341,
      "Ġgespr": 6342,
      "Ġassum": 6343,
      "Ġcomfort": 6344,
      "Ġship": 6345,
      "Ġshown": 6346,
      "Ġloved": 6347,
      "Ġlikely": 6348,
      "ierende": 6349,
      "izitÃ¤t": 6350,
      "Ġgeschaffen": 6351,
      "Ġflight": 6352,
      "spra": 6353,
      "Ġeinfacher": 6354,
      "Ġclin": 6355,
      "Ġzeiten": 6356,
      "Ġhinzu": 6357,
      "athan": 6358,
      "Ġkeiner": 6359,
      "Ġapple": 6360,
      "Ġbisher": 6361,
      "Ġsmell": 6362,
      "Ġbestand": 6363,
      "Ġthroughout": 6364,
      "have": 6365,
      "ĠgrÃ¶ÃŁere": 6366,
      "Ġbroken": 6367,
      "Ġhorr": 6368,
      "zufinden": 6369,
      "Ġclearly": 6370,
      "Ġpractice": 6371,
      "Ġtausende": 6372,
      "ĠtÃ¶ten": 6373,
      "Ġplastic": 6374,
      "Ġdomin": 6375,
      "Ġdemokratie": 6376,
      "Ġconcern": 6377,
      "Ġfortschritt": 6378,
      "ipedia": 6379,
      "ax": 6380,
      "bit": 6381,
      "iop": 6382,
      "iate": 6383,
      "ench": 6384,
      "instead": 6385,
      "esis": 6386,
      "Ġmig": 6387,
      "ĠmÃ¤cht": 6388,
      "onym": 6389,
      "Ġhid": 6390,
      "itar": 6391,
      "Ġfer": 6392,
      "Ġfein": 6393,
      "Ġcow": 6394,
      "Ġkauf": 6395,
      "Ġann": 6396,
      "Ġlower": 6397,
      "Ã¼st": 6398,
      "throp": 6399,
      "Ġzivil": 6400,
      "Ġhair": 6401,
      "Ġhabt": 6402,
      "Ġgegangen": 6403,
      "amb": 6404,
      "Ġref": 6405,
      "Ġerzeugt": 6406,
      "iffen": 6407,
      "Ġworst": 6408,
      "Ġauswirkungen": 6409,
      "Ġhate": 6410,
      "Ġgestellt": 6411,
      "zehn": 6412,
      "Ġcommer": 6413,
      "Ġumf": 6414,
      "Ġprice": 6415,
      "Ġnachdem": 6416,
      "Ġactive": 6417,
      "Ġtrade": 6418,
      "ĠschlÃ¼ssel": 6419,
      "Ġgrundlegen": 6420,
      "Ã¤hle": 6421,
      "Ġeffe": 6422,
      "Ġlaunch": 6423,
      "Ġsitzen": 6424,
      "Ġsuche": 6425,
      "Ġsignal": 6426,
      "Ġconnection": 6427,
      "Ġtypical": 6428,
      "ttbewer": 6429,
      "mitteln": 6430,
      "ieties": 6431,
      "zweitens": 6432,
      "john": 6433,
      "Ġenvironmental": 6434,
      "ĠhÃ¤ngt": 6435,
      "Ġlaws": 6436,
      "Ġarbeitete": 6437,
      "Ġcyber": 6438,
      "Ġmarketing": 6439,
      "Ġdescrib": 6440,
      "Ġdemocracy": 6441,
      "Ġdramat": 6442,
      "Ġquadrat": 6443,
      "Ġletztes": 6444,
      "Ġimmediately": 6445,
      "ĠgefÃ¤ngnis": 6446,
      "Ġperformance": 6447,
      "Ġolymp": 6448,
      "bahn": 6449,
      "dings": 6450,
      "eig": 6451,
      "fast": 6452,
      "ikt": 6453,
      "mor": 6454,
      "pft": 6455,
      "sa": 6456,
      "zul": 6457,
      "Ġul": 6458,
      "eras": 6459,
      "Ġsick": 6460,
      "Ġdia": 6461,
      "esth": 6462,
      "unts": 6463,
      "Ġevolved": 6464,
      "ises": 6465,
      "Ġlines": 6466,
      "geht": 6467,
      "Ġrechte": 6468,
      "Ġriver": 6469,
      "Ġrule": 6470,
      "Ġforg": 6471,
      "Ġchair": 6472,
      "Ġnote": 6473,
      "Ġweren": 6474,
      "ĠkÃ¶nnt": 6475,
      "Ġenor": 6476,
      "Ġconference": 6477,
      "Ġgenome": 6478,
      "Ġbecoming": 6479,
      "ĠgroÃŁbritannien": 6480,
      "Ġideal": 6481,
      "Ġnewsp": 6482,
      "Ġguter": 6483,
      "ishing": 6484,
      "Ġwenige": 6485,
      "Ġirr": 6486,
      "covery": 6487,
      "teilung": 6488,
      "Ġwichtigste": 6489,
      "Ġinvis": 6490,
      "Ġcreativity": 6491,
      "Ġskills": 6492,
      "Ġunderstood": 6493,
      "Ġstanding": 6494,
      "Ġwalked": 6495,
      "ĠauÃŁerhalb": 6496,
      "ĠÃ¶ffnen": 6497,
      "Ġwatching": 6498,
      "Ġindepen": 6499,
      "Ġreduz": 6500,
      "Ġverantwortung": 6501,
      "wÃ¤rts": 6502,
      "Ġbrilliant": 6503,
      "Ġwikipedia": 6504,
      "durch": 6505,
      "fun": 6506,
      "mas": 6507,
      "oden": 6508,
      "test": 6509,
      "chem": 6510,
      "rect": 6511,
      "Ġlad": 6512,
      "andere": 6513,
      "Ġbeine": 6514,
      "edy": 6515,
      "keine": 6516,
      "Ġrechten": 6517,
      "Ġunf": 6518,
      "gener": 6519,
      "schlieÃŁlich": 6520,
      "Ġabsch": 6521,
      "their": 6522,
      "Ġspin": 6523,
      "ulen": 6524,
      "ulieren": 6525,
      "Ġausl": 6526,
      "Ġdesert": 6527,
      "izations": 6528,
      "Ġkompon": 6529,
      "Ġboston": 6530,
      "Ġadapt": 6531,
      "Ġlandsc": 6532,
      "Ġbenutz": 6533,
      "Ġerfahren": 6534,
      "Ġnorden": 6535,
      "Ġfamilies": 6536,
      "Ġplayed": 6537,
      "Ġautomat": 6538,
      "Ġeigenes": 6539,
      "Ġfarben": 6540,
      "Ġansatz": 6541,
      "ĠÃ¤uÃŁ": 6542,
      "Ġberuf": 6543,
      "Ġgedacht": 6544,
      "arbeiter": 6545,
      "Ġclever": 6546,
      "Ġcontroll": 6547,
      "Ġstimmen": 6548,
      "Ġgesamten": 6549,
      "Ġnetzwerk": 6550,
      "Ġpengu": 6551,
      "Ġerlaubt": 6552,
      "ĠursprÃ¼n": 6553,
      "schirm": 6554,
      "Ġereign": 6555,
      "Ġopposite": 6556,
      "hilfe": 6557,
      "cal": 6558,
      "lose": 6559,
      "ohl": 6560,
      "uing": 6561,
      "vant": 6562,
      "Ġten": 6563,
      "Ġaware": 6564,
      "Ġwesen": 6565,
      "Ġmas": 6566,
      "ielle": 6567,
      "unsch": 6568,
      "stieg": 6569,
      "rem": 6570,
      "aries": 6571,
      "leun": 6572,
      "Ġincome": 6573,
      "Ġcases": 6574,
      "Ġkulture": 6575,
      "Ġliste": 6576,
      "Ġtoile": 6577,
      "Ġbell": 6578,
      "Ġbeach": 6579,
      "utt": 6580,
      "Ġweiss": 6581,
      "Ġwirst": 6582,
      "Ġjan": 6583,
      "Ġjames": 6584,
      "Ġrepubl": 6585,
      "Ġrhy": 6586,
      "Ġneuer": 6587,
      "Ġteen": 6588,
      "Ġcondition": 6589,
      "Ġame": 6590,
      "Ġkonstru": 6591,
      "Ġjahres": 6592,
      "stelle": 6593,
      "Ġresist": 6594,
      "Ġgewinn": 6595,
      "Ġklass": 6596,
      "erstoff": 6597,
      "Ġfinding": 6598,
      "Ġapply": 6599,
      "Ġproduced": 6600,
      "Ġfreude": 6601,
      "Ġfinan": 6602,
      "Ġeffekt": 6603,
      "mÃ¶gen": 6604,
      "Ġbilden": 6605,
      "Ġdirection": 6606,
      "Ġrespond": 6607,
      "Ġparticip": 6608,
      "Ġbroad": 6609,
      "Ġverkauft": 6610,
      "Ġbiology": 6611,
      "Ġindividuals": 6612,
      "Ġmassive": 6613,
      "Ġtreatment": 6614,
      "ĠÂ»": 6615,
      "Ġmobil": 6616,
      "Ġbestimmten": 6617,
      "Ġkonzentrieren": 6618,
      "Ġ1960": 6619,
      "Ġsammeln": 6620,
      "Ġoxytocin": 6621,
      "Ġvulner": 6622,
      "nungen": 6623,
      "ptember": 6624,
      "ries": 6625,
      "sup": 6626,
      "tten": 6627,
      "wieso": 6628,
      "ĠtÃ¤": 6629,
      "Ġaust": 6630,
      "Ġaffen": 6631,
      "Ġwahre": 6632,
      "Ġment": 6633,
      "ĠmÃ¤r": 6634,
      "atives": 6635,
      "Ġbunch": 6636,
      "outh": 6637,
      "isation": 6638,
      "Ġinsel": 6639,
      "Ġbelo": 6640,
      "Ġbeantwor": 6641,
      "Ġisol": 6642,
      "Ġvert": 6643,
      "Ġverme": 6644,
      "Ġzugang": 6645,
      "Ġerwe": 6646,
      "Ġruh": 6647,
      "etic": 6648,
      "Ġdoctors": 6649,
      "Ġmitt": 6650,
      "seh": 6651,
      "iban": 6652,
      "Ġarzt": 6653,
      "Ġatom": 6654,
      "odies": 6655,
      "artige": 6656,
      "plane": 6657,
      "Ġsteve": 6658,
      "Ġkomme": 6659,
      "Ġagree": 6660,
      "Ġcloud": 6661,
      "Ġparty": 6662,
      "glicht": 6663,
      "Ġsysteme": 6664,
      "Ġappar": 6665,
      "Ġapplic": 6666,
      "geln": 6667,
      "Ġfinished": 6668,
      "Ġherauszufinden": 6669,
      "Ġregierungen": 6670,
      "boy": 6671,
      "ographic": 6672,
      "load": 6673,
      "Ġebenso": 6674,
      "Ġhilft": 6675,
      "Ġsterne": 6676,
      "Ġerinnere": 6677,
      "Ġfantastisch": 6678,
      "ĠhÃ¤nde": 6679,
      "Ġsatell": 6680,
      "Ġanalog": 6681,
      "Ġanalys": 6682,
      "Ġtwice": 6683,
      "Ġfocused": 6684,
      "Ġbeobach": 6685,
      "Ġwerkzeug": 6686,
      "Ġnegative": 6687,
      "Ġbalance": 6688,
      "ĠgefÃ¤hrlich": 6689,
      "Ġtherap": 6690,
      "Ġbeeinflusst": 6691,
      "Ġstolz": 6692,
      "Ġchaos": 6693,
      "ae": 6694,
      "brechen": 6695,
      "dimensional": 6696,
      "good": 6697,
      "gaben": 6698,
      "life": 6699,
      "mÃ¤ÃŁ": 6700,
      "ruf": 6701,
      "ss": 6702,
      "tube": 6703,
      "enk": 6704,
      "Ġille": 6705,
      "Ġmah": 6706,
      "Ġeating": 6707,
      "ĠfÃ¤ngt": 6708,
      "ari": 6709,
      "ota": 6710,
      "Ġce": 6711,
      "Ġkennt": 6712,
      "Ġangefangen": 6713,
      "irne": 6714,
      "Ġrange": 6715,
      "Ġforces": 6716,
      "Ġaufgeb": 6717,
      "ession": 6718,
      "ulf": 6719,
      "Ġexisten": 6720,
      "Ġnoise": 6721,
      "Ġcomm": 6722,
      "Ġshared": 6723,
      "Ġconcl": 6724,
      "ured": 6725,
      "Ġentschied": 6726,
      "Ġgenom": 6727,
      "platz": 6728,
      "Ġseines": 6729,
      "Ġmusl": 6730,
      "Ġvielf": 6731,
      "Ġselber": 6732,
      "Ġwohn": 6733,
      "Ġtax": 6734,
      "gesetzt": 6735,
      "Ġlief": 6736,
      "Ġklassen": 6737,
      "Ġklingt": 6738,
      "prof": 6739,
      "proble": 6740,
      "Ġpaid": 6741,
      "Ġrelative": 6742,
      "Ã¤hig": 6743,
      "ĠÃ¶kon": 6744,
      "Ġtremend": 6745,
      "Ġprotein": 6746,
      "Ġexperimente": 6747,
      "Ġpopular": 6748,
      "Ġteaching": 6749,
      "Ġhealthy": 6750,
      "Ġwaiting": 6751,
      "Ġmissing": 6752,
      "Ġstudies": 6753,
      "Ġsauerstoff": 6754,
      "Ġinspiration": 6755,
      "Ġentfern": 6756,
      "Ġveh": 6757,
      "jÃ¤hrige": 6758,
      "Ġpatterns": 6759,
      "Ġintelligence": 6760,
      "Ġdrugs": 6761,
      "ĠerzÃ¤hlte": 6762,
      "Ġcompetition": 6763,
      "Ġconsciousness": 6764,
      "Ġfeld": 6765,
      "Ġphenomenon": 6766,
      "Ġbacteria": 6767,
      "Ġbakterien": 6768,
      "Ġphosphor": 6769,
      "ek": 6770,
      "gle": 6771,
      "kor": 6772,
      "laufen": 6773,
      "mill": 6774,
      "Ġteles": 6775,
      "Ġwis": 6776,
      "Ġmassen": 6777,
      "Ġmaster": 6778,
      "Ġgaben": 6779,
      "rew": 6780,
      "reten": 6781,
      "Ġevol": 6782,
      "itely": 6783,
      "Ġfen": 6784,
      "Ġpig": 6785,
      "Ġpup": 6786,
      "Ġportra": 6787,
      "Ġcultural": 6788,
      "anders": 6789,
      "Ġbele": 6790,
      "Ġseptember": 6791,
      "deut": 6792,
      "Ġvern": 6793,
      "Ġveran": 6794,
      "Ġrecy": 6795,
      "Ġunver": 6796,
      "Ġspitze": 6797,
      "Ġheisst": 6798,
      "ulous": 6799,
      "Ġtrifft": 6800,
      "ĠprÃ¤s": 6801,
      "Ġupon": 6802,
      "Ġbru": 6803,
      "Ġkomb": 6804,
      "Ã¤tsel": 6805,
      "Ġunternehmer": 6806,
      "Ġunterschiede": 6807,
      "Ġfac": 6808,
      "aker": 6809,
      "Ġclip": 6810,
      "ktionen": 6811,
      "Ġaddr": 6812,
      "Ġdifferently": 6813,
      "Ġmont": 6814,
      "Ġmostly": 6815,
      "Ġparis": 6816,
      "Ġpatent": 6817,
      "ussion": 6818,
      "Ġbeweg": 6819,
      "Ġeigenschaften": 6820,
      "maÃŁen": 6821,
      "Ġfoundation": 6822,
      "Ġcontain": 6823,
      "Ġgarden": 6824,
      "Ġcapacity": 6825,
      "ĠhÃ¶her": 6826,
      "Ġeasier": 6827,
      "Ġmilliarde": 6828,
      "Ġ250": 6829,
      "Ġexistiert": 6830,
      "Ġcaliforn": 6831,
      "Ġfotos": 6832,
      "holt": 6833,
      "Ġtelevision": 6834,
      "ĠlÃ¶sungen": 6835,
      "Ġbrauchte": 6836,
      "ĠfÃ¤llen": 6837,
      "Ġastron": 6838,
      "Ġstatistics": 6839,
      "Ġforever": 6840,
      "Ġkommunikation": 6841,
      "Ġtemperatur": 6842,
      "ĠbenÃ¶tigt": 6843,
      "Ġlernte": 6844,
      "Ġparadig": 6845,
      "Ġmountain": 6846,
      "Ġbotschaft": 6847,
      "Ġsustainable": 6848,
      "Ġtatsache": 6849,
      "Ġnigeria": 6850,
      "ĠermÃ¶glicht": 6851,
      "Ġaccount": 6852,
      "Ġbetrachtet": 6853,
      "Ġnachzudenken": 6854,
      "Ġsignificant": 6855,
      "18": 6856,
      "ected": 6857,
      "fo": 6858,
      "fish": 6859,
      "mach": 6860,
      "ris": 6861,
      "rÃ¤n": 6862,
      "seine": 6863,
      "ua": 6864,
      "wise": 6865,
      "Ġ000": 6866,
      "Ġtiss": 6867,
      "Ġdur": 6868,
      "ĠwÃ¤hlen": 6869,
      "Ġid": 6870,
      "ancy": 6871,
      "Ġmix": 6872,
      "Ġmatch": 6873,
      "Ġfold": 6874,
      "Ġnasa": 6875,
      "Ġnahrungs": 6876,
      "Ġpfer": 6877,
      "Ġpaul": 6878,
      "Ġkunden": 6879,
      "Ġansch": 6880,
      "Ġlate": 6881,
      "Ġwealth": 6882,
      "Ġhaiti": 6883,
      "Ġyoutube": 6884,
      "rale": 6885,
      "Ġstunde": 6886,
      "imately": 6887,
      "Ġabge": 6888,
      "opath": 6889,
      "anning": 6890,
      "istische": 6891,
      "Ġchicken": 6892,
      "Ġdagegen": 6893,
      "Ġentsp": 6894,
      "Ġbrot": 6895,
      "selben": 6896,
      "Ġdurchge": 6897,
      "Ġdrittel": 6898,
      "Ġobs": 6899,
      "Ġklang": 6900,
      "Ġkamera": 6901,
      "Ġrelativ": 6902,
      "works": 6903,
      "Ġgegenteil": 6904,
      "Ġgraf": 6905,
      "Ġcreates": 6906,
      "Ġbehau": 6907,
      "altung": 6908,
      "ucks": 6909,
      "Ġbreast": 6910,
      "ĠbedÃ¼r": 6911,
      "Ġpossibly": 6912,
      "Ġglobalen": 6913,
      "Ġhoriz": 6914,
      "Ġtask": 6915,
      "Ġtypen": 6916,
      "Ġdunkel": 6917,
      "Ġlautet": 6918,
      "Ġcloser": 6919,
      "Ġverschwinden": 6920,
      "ĠbenÃ¶tigen": 6921,
      "ĠÃ¤rzte": 6922,
      "Ġwachstum": 6923,
      "ĠgeschÃ¤fts": 6924,
      "Ġfloor": 6925,
      "Ġrestaurant": 6926,
      "Ġancient": 6927,
      "ĠkÃ¤mpfen": 6928,
      "Ġrhyth": 6929,
      "10": 6930,
      "bing": 6931,
      "cies": 6932,
      "five": 6933,
      "hes": 6934,
      "rb": 6935,
      "wach": 6936,
      "yer": 6937,
      "Ġdiver": 6938,
      "Ġwaffen": 6939,
      "ĠwÃ¤chst": 6940,
      "Ġhur": 6941,
      "Ġhunderte": 6942,
      "Ġfell": 6943,
      "arter": 6944,
      "isser": 6945,
      "Ġinvol": 6946,
      "Ġlies": 6947,
      "omit": 6948,
      "iern": 6949,
      "Ġjack": 6950,
      "ĠjÃ¼n": 6951,
      "Ġvermut": 6952,
      "schule": 6953,
      "ĠerÃ¶ff": 6954,
      "Ġschuld": 6955,
      "Ġdopp": 6956,
      "uchte": 6957,
      "Ġspider": 6958,
      "seits": 6959,
      "ustellen": 6960,
      "Ġarmen": 6961,
      "abt": 6962,
      "Ġdegre": 6963,
      "Ġsomehow": 6964,
      "Ġhero": 6965,
      "Ã¤tz": 6966,
      "Ġfrag": 6967,
      "meister": 6968,
      "Ġfaces": 6969,
      "Ġanywhere": 6970,
      "Ã¤ndert": 6971,
      "Ġversor": 6972,
      "Ġadults": 6973,
      "Ġauge": 6974,
      "Ġpolio": 6975,
      "Ġstudien": 6976,
      "Ġerfahr": 6977,
      "Ġstatus": 6978,
      "Ġsupply": 6979,
      "Ġhumanity": 6980,
      "ondere": 6981,
      "treten": 6982,
      "ography": 6983,
      "Ġrisiko": 6984,
      "Ġparticles": 6985,
      "ynman": 6986,
      "apping": 6987,
      "haltung": 6988,
      "Ġvogel": 6989,
      "ĠverrÃ¼ck": 6990,
      "krebs": 6991,
      "ĠreprÃ¤sent": 6992,
      "Ġcomplexity": 6993,
      "ĠkomplexitÃ¤t": 6994,
      "Ġsowohl": 6995,
      "Ġleads": 6996,
      "Ġ1990": 6997,
      "Ġwerkzeuge": 6998,
      "ĠmilitÃ¤r": 6999,
      "Ġentscheidung": 7000,
      "Ġverbreitet": 7001,
      "Ġauthent": 7002,
      "Ġdirectly": 7003,
      "Ġoxygen": 7004,
      "Ġklimaw": 7005,
      "ĠzufÃ¤llig": 7006,
      "aven": 7007,
      "dest": 7008,
      "lg": 7009,
      "light": 7010,
      "zelle": 7011,
      "ining": 7012,
      "Ġaster": 7013,
      "Ġdial": 7014,
      "Ġbird": 7015,
      "Ġnu": 7016,
      "Ġeinstein": 7017,
      "thr": 7018,
      "quenz": 7019,
      "dete": 7020,
      "raid": 7021,
      "Ġunbed": 7022,
      "ĠungewÃ¶hn": 7023,
      "weisen": 7024,
      "Ġring": 7025,
      "Ġdok": 7026,
      "Ġabs": 7027,
      "Ġwarm": 7028,
      "Ġimm": 7029,
      "istry": 7030,
      "auber": 7031,
      "Ġmoon": 7032,
      "mente": 7033,
      "abl": 7034,
      "Ġfrench": 7035,
      "ĠÃ¼berle": 7036,
      "Ġsharing": 7037,
      "ĠgrÃ¶s": 7038,
      "Ġglas": 7039,
      "Ġbridge": 7040,
      "Ġrare": 7041,
      "Ã¼nd": 7042,
      "Ġclub": 7043,
      "Ġstress": 7044,
      "Ġpassed": 7045,
      "Ġgewonnen": 7046,
      "Ġmond": 7047,
      "Ġ195": 7048,
      "Ġanswers": 7049,
      "Ġ2008": 7050,
      "Ġhighly": 7051,
      "Ġcharakter": 7052,
      "Ġopfer": 7053,
      "Ġpolitics": 7054,
      "Ġlesson": 7055,
      "Ġairplane": 7056,
      "Ġpresident": 7057,
      "Ġgovernments": 7058,
      "frau": 7059,
      "Ġmemory": 7060,
      "Ġflex": 7061,
      "Ġroten": 7062,
      "pektive": 7063,
      "Ġpressure": 7064,
      "Ġinsekten": 7065,
      "ĠunterstÃ¼tzen": 7066,
      "Ġbestimmte": 7067,
      "ĠverhÃ¤lt": 7068,
      "Ġfairly": 7069,
      "Ġerwarten": 7070,
      "Ġviolence": 7071,
      "Ġstudied": 7072,
      "ĠschÃ¼tzen": 7073,
      "Ġearlier": 7074,
      "Ġinvisible": 7075,
      "Ġerfahrungen": 7076,
      "gere": 7077,
      "hm": 7078,
      "ju": 7079,
      "pel": 7080,
      "riere": 7081,
      "taus": 7082,
      "vas": 7083,
      "Ġtough": 7084,
      "Ġsir": 7085,
      "Ġshr": 7086,
      "Ġwide": 7087,
      "Ġhirn": 7088,
      "Ġbul": 7089,
      "Ġgand": 7090,
      "itel": 7091,
      "apse": 7092,
      "leist": 7093,
      "Ġiniti": 7094,
      "Ġanstatt": 7095,
      "Ġeinkommen": 7096,
      "Ġlasst": 7097,
      "Ġzut": 7098,
      "Ġweap": 7099,
      "Ġseien": 7100,
      "icke": 7101,
      "Ġjul": 7102,
      "ĠrÃ¤tsel": 7103,
      "Ġlegal": 7104,
      "eline": 7105,
      "Ġmexic": 7106,
      "Ġprovid": 7107,
      "esser": 7108,
      "Ġspaces": 7109,
      "Ġdef": 7110,
      "Ġdefen": 7111,
      "Ġzeigte": 7112,
      "Ġperform": 7113,
      "Ġfailed": 7114,
      "aterial": 7115,
      "Ġafraid": 7116,
      "ĠgroÃŁteil": 7117,
      "trans": 7118,
      "Ġboys": 7119,
      "ramm": 7120,
      "Ġhalb": 7121,
      "Ġinstance": 7122,
      "gefunden": 7123,
      "Ġnames": 7124,
      "Ġbread": 7125,
      "Ġfalsche": 7126,
      "Ġkrankheiten": 7127,
      "Ġstructures": 7128,
      "Ġextreme": 7129,
      "Ġverdienen": 7130,
      "zeichen": 7131,
      "Ġequip": 7132,
      "Ġelektron": 7133,
      "minister": 7134,
      "Ġspreche": 7135,
      "Ġanaly": 7136,
      "Ġstreets": 7137,
      "Ġgrandm": 7138,
      "Ġdestro": 7139,
      "Ġcopy": 7140,
      "Ġshoot": 7141,
      "Ġservices": 7142,
      "Ġplastik": 7143,
      "Ġpollen": 7144,
      "Ġsekunde": 7145,
      "Ġoccur": 7146,
      "Ġ2010": 7147,
      "Ġdecisions": 7148,
      "Ġencou": 7149,
      "gruppe": 7150,
      "Ġlucky": 7151,
      "Ġheutigen": 7152,
      "ĠnÃ¼tzlich": 7153,
      "Ġzusammenhang": 7154,
      "Ġvorhers": 7155,
      "Ġcalifornia": 7156,
      "Ġdegrees": 7157,
      "dp": 7158,
      "lar": 7159,
      "lern": 7160,
      "ost": 7161,
      "pm": 7162,
      "piel": 7163,
      "vig": 7164,
      "water": 7165,
      "Ġtu": 7166,
      "Ġtisch": 7167,
      "Ġdick": 7168,
      "Ġip": 7169,
      "iete": 7170,
      "only": 7171,
      "atom": 7172,
      "Ġhem": 7173,
      "Ġhind": 7174,
      "Ġhielt": 7175,
      "Ġgain": 7176,
      "Ġpip": 7177,
      "Ġpingu": 7178,
      "appen": 7179,
      "Ġcust": 7180,
      "urf": 7181,
      "soll": 7182,
      "gets": 7183,
      "Ġstabil": 7184,
      "ildet": 7185,
      "gendet": 7186,
      "scher": 7187,
      "eler": 7188,
      "ucher": 7189,
      "Ġallows": 7190,
      "Ġmeg": 7191,
      "ulations": 7192,
      "ibilities": 7193,
      "Ġumge": 7194,
      "Ã¤ngen": 7195,
      "Ġdepress": 7196,
      "Ġconvin": 7197,
      "Ġloch": 7198,
      "Ġentstehen": 7199,
      "Ġ28": 7200,
      "Ġcoast": 7201,
      "Ġrocket": 7202,
      "Ġworkers": 7203,
      "Ġweltwe": 7204,
      "Ġeinfachen": 7205,
      "Ã¼sse": 7206,
      "ĠdrÃ¼ben": 7207,
      "Ġobwohl": 7208,
      "Ġartikel": 7209,
      "Ġgering": 7210,
      "Ġprec": 7211,
      "Ġzumindest": 7212,
      "Ġemb": 7213,
      "Ġheld": 7214,
      "Ġhalt": 7215,
      "Ġschwimmen": 7216,
      "Ġcount": 7217,
      "Ġherausfinden": 7218,
      "ĠgefÃ¤": 7219,
      "Ġverlang": 7220,
      "ĠÃ¤lt": 7221,
      "Ġeffort": 7222,
      "Ġhelped": 7223,
      "Ġimagination": 7224,
      "Ġcommunities": 7225,
      "Ġstopped": 7226,
      "Ġsympt": 7227,
      "Ġharm": 7228,
      "Ġmaterialien": 7229,
      "everything": 7230,
      "Ġteams": 7231,
      "Ġscientist": 7232,
      "Ġhorse": 7233,
      "Ġsocieties": 7234,
      "Ġcircle": 7235,
      "Ġfleisch": 7236,
      "Ġorigami": 7237,
      "Ġjahrhunder": 7238,
      "Ġbeziehungen": 7239,
      "Ġproduziert": 7240,
      "Ġresponsibility": 7241,
      "ĠerklÃ¤rt": 7242,
      "Ġvirtual": 7243,
      "Ġpurpose": 7244,
      "Ġdecision": 7245,
      "Ġcontrib": 7246,
      "Ġghana": 7247,
      "Ġenjoy": 7248,
      "Ġmagazine": 7249,
      "Ġagriculture": 7250,
      "wahrscheinlich": 7251,
      "Ġhaupts": 7252,
      "auÃŁerdem": 7253,
      "Ġcommercial": 7254,
      "eigentlich": 7255,
      "ĠbedÃ¼rf": 7256,
      "&#": 7257,
      "aurs": 7258,
      "ec": 7259,
      "fÃ¶r": 7260,
      "hause": 7261,
      "pack": 7262,
      "Ġtor": 7263,
      "child": 7264,
      "Ġale": 7265,
      "Ġdere": 7266,
      "Ġdying": 7267,
      "Ġiphone": 7268,
      "iegen": 7269,
      "ĠbÃ¤ume": 7270,
      "Ġgiant": 7271,
      "ret": 7272,
      "ĠfÃ¶r": 7273,
      "Ġox": 7274,
      "Ġcaught": 7275,
      "Ġkit": 7276,
      "Ġkos": 7277,
      "Ġlack": 7278,
      "Ġwei": 7279,
      "vey": 7280,
      "Ġgelegenheit": 7281,
      "Ġstan": 7282,
      "Ġstation": 7283,
      "kehren": 7284,
      "schutz": 7285,
      "Ġrough": 7286,
      "Ġrio": 7287,
      "ola": 7288,
      "Ġlegen": 7289,
      "idung": 7290,
      "opt": 7291,
      "iffe": 7292,
      "istert": 7293,
      "Ġchic": 7294,
      "Ġteuer": 7295,
      "Ġtherefore": 7296,
      "ollar": 7297,
      "igend": 7298,
      "Ġrow": 7299,
      "Ġartist": 7300,
      "zugehen": 7301,
      "Ġklin": 7302,
      "ganz": 7303,
      "Ġsimpl": 7304,
      "Ġfrem": 7305,
      "Ġhalte": 7306,
      "Ġfeels": 7307,
      "Ġladen": 7308,
      "from": 7309,
      "Ġfolgendes": 7310,
      "Ġarchitect": 7311,
      "Ġkurzem": 7312,
      "Ġexistieren": 7313,
      "takt": 7314,
      "Ġfuel": 7315,
      "Ġorganisation": 7316,
      "ognitive": 7317,
      "Ġengineering": 7318,
      "Ġtitan": 7319,
      "Ġbehandeln": 7320,
      "Ġmethod": 7321,
      "Ġgolden": 7322,
      "Ġbirds": 7323,
      "Ġforeign": 7324,
      "Ġfeedback": 7325,
      "Ġstrukturen": 7326,
      "Ġrequire": 7327,
      "Ġmotivation": 7328,
      "Ġinstrument": 7329,
      "Ġhonest": 7330,
      "Ġkompliziert": 7331,
      "Ġcauses": 7332,
      "Ġbegriff": 7333,
      "Ġpraktisch": 7334,
      "Ġnecessarily": 7335,
      "Ġcritical": 7336,
      "Ġverursacht": 7337,
      "Ġmentioned": 7338,
      "Ġlaptop": 7339,
      "Ġknochen": 7340,
      "ĠkreativitÃ¤t": 7341,
      "Ġingenie": 7342,
      "Ġfinancial": 7343,
      "gendetwas": 7344,
      "cop": 7345,
      "kn": 7346,
      "lasst": 7347,
      "mÃ¤dchen": 7348,
      "ns": 7349,
      "sun": 7350,
      "uert": 7351,
      "wich": 7352,
      "chnen": 7353,
      "Ġszen": 7354,
      "Ġdol": 7355,
      "ĠdÃ¼n": 7356,
      "ĠwÃ¤r": 7357,
      "Ġmouth": 7358,
      "Ġhous": 7359,
      "asche": 7360,
      "Ġgig": 7361,
      "stadt": 7362,
      "Ġfach": 7363,
      "Ġnull": 7364,
      "Ġosten": 7365,
      "Ġanonym": 7366,
      "ires": 7367,
      "usagen": 7368,
      "Ã¤ne": 7369,
      "quote": 7370,
      "Ġjungs": 7371,
      "Ġremo": 7372,
      "Ġuncle": 7373,
      "schung": 7374,
      "Ġrub": 7375,
      "Ġprojekte": 7376,
      "ifik": 7377,
      "Ġspot": 7378,
      "ibl": 7379,
      "Ġarmy": 7380,
      "ennung": 7381,
      "artin": 7382,
      "Ġshift": 7383,
      "Ġtrib": 7384,
      "Ġprime": 7385,
      "Ġbron": 7386,
      "ugier": 7387,
      "Ġflor": 7388,
      "Ġsculpt": 7389,
      "Ġwohin": 7390,
      "Ġbound": 7391,
      "Ġdifferences": 7392,
      "Ġrespekt": 7393,
      "Ġempt": 7394,
      "nost": 7395,
      "Ġgreater": 7396,
      "Ġwahrneh": 7397,
      "Ġautonom": 7398,
      "Ġ2004": 7399,
      "Ġnetworks": 7400,
      "Ġbeschleun": 7401,
      "Ġfourth": 7402,
      "Ġweiteren": 7403,
      "Ġincrease": 7404,
      "gewicht": 7405,
      "Ġlights": 7406,
      "Ġvollkommen": 7407,
      "ĠvollstÃ¤ndig": 7408,
      "Ġpaint": 7409,
      "Ġspecific": 7410,
      "Ġwesentlichen": 7411,
      "Ġhearing": 7412,
      "Ġbiologie": 7413,
      "Ġholz": 7414,
      "Ġeffective": 7415,
      "frage": 7416,
      "Ġprivat": 7417,
      "Ġtransformation": 7418,
      "Ġdiagn": 7419,
      "cules": 7420,
      "ĠÃ¼berras": 7421,
      "Ġ1980": 7422,
      "bereich": 7423,
      "Ġzentral": 7424,
      "ĠgefÃ¼hle": 7425,
      "ĠbuchstÃ¤": 7426,
      "Ġaddress": 7427,
      "blichkeit": 7428,
      "fisch": 7429,
      "know": 7430,
      "sim": 7431,
      "eness": 7432,
      "erc": 7433,
      "erinn": 7434,
      "Ġtieren": 7435,
      "Ġtanzen": 7436,
      "Ġwuchs": 7437,
      "Ġwunsch": 7438,
      "Ġbos": 7439,
      "Ġbienen": 7440,
      "itat": 7441,
      "Ġfurch": 7442,
      "Ġpas": 7443,
      "Ġinc": 7444,
      "Ġinfe": 7445,
      "Ġvag": 7446,
      "three": 7447,
      "anden": 7448,
      "Ġbear": 7449,
      "used": 7450,
      "Ã¤ger": 7451,
      "Ġwege": 7452,
      "Ġseat": 7453,
      "Ġham": 7454,
      "Ġgeomet": 7455,
      "Ġstir": 7456,
      "ams": 7457,
      "Ġreagieren": 7458,
      "Ġschaut": 7459,
      "cked": 7460,
      "Ġforth": 7461,
      "heben": 7462,
      "ĠaufhÃ¶ren": 7463,
      "Ġwerfen": 7464,
      "Ġgrass": 7465,
      "Ġherzen": 7466,
      "Ġ27": 7467,
      "Ġquiet": 7468,
      "Ġmichael": 7469,
      "Ġgeschwindigkeit": 7470,
      "ologist": 7471,
      "ĠflÃ¼ss": 7472,
      "Ġphase": 7473,
      "liegen": 7474,
      "Ġstring": 7475,
      "Ġartists": 7476,
      "Ġlieber": 7477,
      "Ġprem": 7478,
      "Ġirgendetwas": 7479,
      "Ġschlimmer": 7480,
      "however": 7481,
      "Ġzusammenarbeit": 7482,
      "Ġendlich": 7483,
      "Ġberechn": 7484,
      "Ġmodelle": 7485,
      "Ġexplan": 7486,
      "Ġkurze": 7487,
      "Ġgehirns": 7488,
      "Ġcareer": 7489,
      "Ġcorrect": 7490,
      "Ġunterschiedlich": 7491,
      "Ġunterschiedlichen": 7492,
      "Ġharder": 7493,
      "Ġelectron": 7494,
      "Ġsozusagen": 7495,
      "Ġswitch": 7496,
      "Ġoption": 7497,
      "ĠauÃŁerdem": 7498,
      "Ġkriegen": 7499,
      "hafte": 7500,
      "Ġneuronen": 7501,
      "Ġhydro": 7502,
      "Ġlevels": 7503,
      "Ġchallenges": 7504,
      "Ġmolecules": 7505,
      "Ġfollowing": 7506,
      "Ġkapital": 7507,
      "Ġperfectly": 7508,
      "Ġerstaunliche": 7509,
      "Ġbehandlung": 7510,
      "Ġdesto": 7511,
      "Ġbekamen": 7512,
      "Ġlaugh": 7513,
      "Ġtausend": 7514,
      "Ġveget": 7515,
      "Ġfernsehen": 7516,
      "Ġinsects": 7517,
      "Ġdinosaurs": 7518,
      "Ġkilometer": 7519,
      "Ġfossil": 7520,
      "krieg": 7521,
      "Ġconflict": 7522,
      "Ġaustral": 7523,
      "Ġultr": 7524,
      "Ġillegal": 7525,
      "Ġequipment": 7526,
      "bill": 7527,
      "best": 7528,
      "dollar": 7529,
      "fil": 7530,
      "hat": 7531,
      "hib": 7532,
      "kind": 7533,
      "oge": 7534,
      "sin": 7535,
      "setzt": 7536,
      "yet": 7537,
      "ypt": 7538,
      "zun": 7539,
      "zel": 7540,
      "Ġtue": 7541,
      "Ġaqu": 7542,
      "Ġmasse": 7543,
      "atter": 7544,
      "Ġbag": 7545,
      "Ġgps": 7546,
      "reibt": 7547,
      "itzt": 7548,
      "Ġfok": 7549,
      "osed": 7550,
      "Ġpin": 7551,
      "Ġine": 7552,
      "Ġcro": 7553,
      "Ġkart": 7554,
      "andid": 7555,
      "eds": 7556,
      "Ġweird": 7557,
      "Ġwettbewer": 7558,
      "Ġdiejenigen": 7559,
      "rol": 7560,
      "sogar": 7561,
      "uments": 7562,
      "Ġreward": 7563,
      "gene": 7564,
      "Ġzufrieden": 7565,
      "ĠerfÃ¼": 7566,
      "Ġerleben": 7567,
      "Ġschutz": 7568,
      "Ġschicken": 7569,
      "Ġrational": 7570,
      "ĠrÃ¼cken": 7571,
      "cking": 7572,
      "ida": 7573,
      "Ġmex": 7574,
      "Ġmeat": 7575,
      "Ġneut": 7576,
      "Ġprovide": 7577,
      "auben": 7578,
      "Ġfranz": 7579,
      "iency": 7580,
      "Ġshop": 7581,
      "Ġshock": 7582,
      "Ġgenutzt": 7583,
      "Ġproud": 7584,
      "Ġbrut": 7585,
      "Ġstein": 7586,
      "Ġstecken": 7587,
      "Ġkontext": 7588,
      "Ġbesitzen": 7589,
      "oret": 7590,
      "Ġdrin": 7591,
      "Ġcalls": 7592,
      "aced": 7593,
      "Ġpoem": 7594,
      "Ġstrand": 7595,
      "Ġprevent": 7596,
      "Ã¤hrt": 7597,
      "Ġgewicht": 7598,
      "fÃ¼hrer": 7599,
      "Ġhohe": 7600,
      "Ġemail": 7601,
      "Ġstudieren": 7602,
      "Ġbitten": 7603,
      "Ġgleichzeitig": 7604,
      "Ġturning": 7605,
      "Ġfilme": 7606,
      "Ġschnitt": 7607,
      "Ġcreatures": 7608,
      "bling": 7609,
      "Ġjoy": 7610,
      "Ġmetapher": 7611,
      "Ġamazon": 7612,
      "markt": 7613,
      "Ġkarten": 7614,
      "Ġseemed": 7615,
      "Ġinspired": 7616,
      "Ġlinken": 7617,
      "Ġvalues": 7618,
      "Ġlanguages": 7619,
      "Ġherzustellen": 7620,
      "ĠsÃ¼ÃŁ": 7621,
      "Ġcolleag": 7622,
      "based": 7623,
      "Ġschafft": 7624,
      "Ġeingesetzt": 7625,
      "Ġkompliz": 7626,
      "Ġbanglad": 7627,
      "Ġskelet": 7628,
      "ĠnatÃ¼rliche": 7629,
      "Ġharvard": 7630,
      "Ġdisappear": 7631,
      "Ġkollegen": 7632,
      "Ġdiabe": 7633,
      "Ġchicago": 7634,
      "ĠbuchstÃ¤blich": 7635,
      "hum": 7636,
      "nob": 7637,
      "uary": 7638,
      "wow": 7639,
      "Ġatem": 7640,
      "Ġdinner": 7641,
      "anced": 7642,
      "Ġhi": 7643,
      "Ġlunch": 7644,
      "Ġwein": 7645,
      "ĠgeÃ¤ndert": 7646,
      "Ġstimm": 7647,
      "Ġverg": 7648,
      "Ġrepe": 7649,
      "Ġreform": 7650,
      "wechsel": 7651,
      "Ġzucker": 7652,
      "ufact": 7653,
      "bewe": 7654,
      "Ġren": 7655,
      "Ġprob": 7656,
      "aging": 7657,
      "ĠspÃ¼r": 7658,
      "Ġchap": 7659,
      "Ġnoticed": 7660,
      "elly": 7661,
      "Ġausw": 7662,
      "Ġgeschen": 7663,
      "Ġcontra": 7664,
      "Ġmac": 7665,
      "Ġpeak": 7666,
      "Ġvorbere": 7667,
      "Ġentlang": 7668,
      "Ġinterface": 7669,
      "while": 7670,
      "Ġcoff": 7671,
      "Ġfragten": 7672,
      "Ġfehlen": 7673,
      "Ġbesessen": 7674,
      "Ġbegren": 7675,
      "Ġbegins": 7676,
      "Ġtail": 7677,
      "Ġtraff": 7678,
      "Ġzeitpunkt": 7679,
      "zuerst": 7680,
      "ĠlieÃŁ": 7681,
      "Ġprep": 7682,
      "Ġappe": 7683,
      "Ġdesigners": 7684,
      "Ġparall": 7685,
      "adel": 7686,
      "Ġganzes": 7687,
      "Ġantib": 7688,
      "Ġbasiert": 7689,
      "ĠverÃ¤nderungen": 7690,
      "Ġdecide": 7691,
      "esented": 7692,
      "Ġsetzt": 7693,
      "Ġmaterie": 7694,
      "Ġgemeinde": 7695,
      "Ġbabys": 7696,
      "anyway": 7697,
      "Ġeasily": 7698,
      "volle": 7699,
      "Ġwesten": 7700,
      "Ġmathematics": 7701,
      "Ġeffects": 7702,
      "Ġspeaking": 7703,
      "Ġamerikanische": 7704,
      "Ġprofessional": 7705,
      "ĠerhÃ¤lt": 7706,
      "tended": 7707,
      "Ġshoes": 7708,
      "Ġrelationships": 7709,
      "Ġaufregend": 7710,
      "ĠverfÃ¼g": 7711,
      "Ġbegeistert": 7712,
      "Ġdeutlich": 7713,
      "Ġnormale": 7714,
      "ĠverÃ¶ffent": 7715,
      "Ġverfolgen": 7716,
      "michael": 7717,
      "Ġchirurg": 7718,
      "richard": 7719,
      "verstÃ¤ndlich": 7720,
      "ĠdÃ¼rfen": 7721,
      "Ġunbedingt": 7722,
      "Ġcustom": 7723,
      "ba": 7724,
      "fung": 7725,
      "fangen": 7726,
      "hÃ¶rt": 7727,
      "wen": 7728,
      "ino": 7729,
      "Ġtesten": 7730,
      "Ġdate": 7731,
      "Ġwitz": 7732,
      "Ġmall": 7733,
      "unge": 7734,
      "unting": 7735,
      "onie": 7736,
      "Ġbow": 7737,
      "Ġbodies": 7738,
      "asion": 7739,
      "Ġgates": 7740,
      "Ġnest": 7741,
      "osse": 7742,
      "Ġpages": 7743,
      "appe": 7744,
      "Ġinj": 7745,
      "Ġbeit": 7746,
      "Ġstufe": 7747,
      "ierungs": 7748,
      "Ġreplic": 7749,
      "iment": 7750,
      "ĠschlieÃŁen": 7751,
      "Ġalleine": 7752,
      "Ġmeiste": 7753,
      "ĠabhÃ¤ng": 7754,
      "opp": 7755,
      "Ġneugier": 7756,
      "Ġmitglie": 7757,
      "Ġchann": 7758,
      "Ġextin": 7759,
      "Ġaspect": 7760,
      "Ġtri": 7761,
      "Ġentschuld": 7762,
      "Ġentsteht": 7763,
      "Ġstem": 7764,
      "Ġsteuern": 7765,
      "Ã¶rung": 7766,
      "Ġfeynman": 7767,
      "Ġblieb": 7768,
      "spre": 7769,
      "trieben": 7770,
      "Ġselben": 7771,
      "Ġdriving": 7772,
      "Ġtraur": 7773,
      "Ġstrug": 7774,
      "Ġlied": 7775,
      "Ġversus": 7776,
      "Ġgewissen": 7777,
      "ungskraft": 7778,
      "Ġaccur": 7779,
      "netz": 7780,
      "bridge": 7781,
      "Ġsmile": 7782,
      "letzt": 7783,
      "Ġfreunden": 7784,
      "Ġlangweil": 7785,
      "Ġmoments": 7786,
      "teln": 7787,
      "Ġplayer": 7788,
      "deswegen": 7789,
      "Ġremind": 7790,
      "Ġeffiz": 7791,
      "Ġterm": 7792,
      "Ġvisit": 7793,
      "Ġwelcher": 7794,
      "Ġexplos": 7795,
      "Ġincreasing": 7796,
      "Ġpolitische": 7797,
      "Ġminds": 7798,
      "Ġgedanke": 7799,
      "Ġwissenschaftliche": 7800,
      "Ġwunderbare": 7801,
      "ohne": 7802,
      "Ġversuchten": 7803,
      "Ġkiller": 7804,
      "Ġreligious": 7805,
      "Ġinvestment": 7806,
      "schrift": 7807,
      "Ġemotions": 7808,
      "Ġschrift": 7809,
      "Ġchoices": 7810,
      "Ġdauert": 7811,
      "zweif": 7812,
      "Ġsynth": 7813,
      "Ġprivile": 7814,
      "Ġopportunities": 7815,
      "Ġsafety": 7816,
      "Ġholding": 7817,
      "Ġpractical": 7818,
      "Ġbudget": 7819,
      "Ġmodernen": 7820,
      "ifornien": 7821,
      "Ġerforschen": 7822,
      "Ġgerecht": 7823,
      "Ġprototyp": 7824,
      "programm": 7825,
      "Ġinfluence": 7826,
      "Ġtremendous": 7827,
      "bracht": 7828,
      "gas": 7829,
      "kinder": 7830,
      "lÃ¼": 7831,
      "laden": 7832,
      "uum": 7833,
      "Ġhus": 7834,
      "Ġehe": 7835,
      "ita": 7836,
      "Ġcents": 7837,
      "Ġciti": 7838,
      "thal": 7839,
      "andem": 7840,
      "Ġbeteil": 7841,
      "Ġbezeich": 7842,
      "Ġbezahlen": 7843,
      "entiell": 7844,
      "icted": 7845,
      "icles": 7846,
      "Ġjer": 7847,
      "Ġschu": 7848,
      "elten": 7849,
      "verb": 7850,
      "etwas": 7851,
      "Ġallgemein": 7852,
      "Ġmeeres": 7853,
      "Ġimpf": 7854,
      "Ġheat": 7855,
      "kton": 7856,
      "Ġmanufact": 7857,
      "anta": 7858,
      "Ġarts": 7859,
      "Ġtricks": 7860,
      "Ġcondu": 7861,
      "Ġconsequen": 7862,
      "Ġquas": 7863,
      "formen": 7864,
      "Ġsteckt": 7865,
      "Ġframe": 7866,
      "ĠbloÃŁ": 7867,
      "ĠmÃ¶gliche": 7868,
      "phil": 7869,
      "Ġgefangen": 7870,
      "Ġsurge": 7871,
      "Ġgrunds": 7872,
      "Ġweiterhin": 7873,
      "ĠweiÃŁen": 7874,
      "Ġorganic": 7875,
      "Ġorganisms": 7876,
      "Ġkohlen": 7877,
      "Ġdecade": 7878,
      "Ġinstru": 7879,
      "Ġ65": 7880,
      "Ġsitzt": 7881,
      "Ġsicherlich": 7882,
      "Ġstreit": 7883,
      "ification": 7884,
      "Ġvirgin": 7885,
      "Ġcambridge": 7886,
      "schlagen": 7887,
      "Ġwindow": 7888,
      "Ġyester": 7889,
      "Ġgestorben": 7890,
      "Ġverkauf": 7891,
      "Ġsexual": 7892,
      "ktivitÃ¤t": 7893,
      "Ġbiological": 7894,
      "ĠÃ¶ffentlichen": 7895,
      "Ġvarious": 7896,
      "folge": 7897,
      "Ġdevices": 7898,
      "Ġoceans": 7899,
      "Ġfreiwill": 7900,
      "kreis": 7901,
      "Ġillusion": 7902,
      "Ġtony": 7903,
      "Ġlimit": 7904,
      "Ġdeinen": 7905,
      "Ġnearly": 7906,
      "Ġbomb": 7907,
      "ivalent": 7908,
      "Ġbreath": 7909,
      "Ġgeheimnis": 7910,
      "Ġsuffering": 7911,
      "Ġlaufe": 7912,
      "Ġmedikamente": 7913,
      "Ġfascinating": 7914,
      "ĠhÃ¤ufig": 7915,
      "Ġlieblings": 7916,
      "Ġlandscape": 7917,
      "Ġwisdom": 7918,
      "Ġfenster": 7919,
      "Ġgrafik": 7920,
      "Ġconsequences": 7921,
      "ech": 7922,
      "eben": 7923,
      "iat": 7924,
      "ias": 7925,
      "ov": 7926,
      "oons": 7927,
      "pte": 7928,
      "vit": 7929,
      "vable": 7930,
      "yr": 7931,
      "zunehmen": 7932,
      "Ġ+": 7933,
      "chern": 7934,
      "Ġaug": 7935,
      "Ġwid": 7936,
      "Ġmund": 7937,
      "unkte": 7938,
      "once": 7939,
      "Ġbare": 7940,
      "itiv": 7941,
      "Ġfiel": 7942,
      "Ġnannte": 7943,
      "Ġpink": 7944,
      "Ġpfe": 7945,
      "Ġincent": 7946,
      "Ġkir": 7947,
      "Ġkick": 7948,
      "Ġeindruck": 7949,
      "Ġbewir": 7950,
      "que": 7951,
      "Ã¶tet": 7952,
      "Ġverf": 7953,
      "Ġreisen": 7954,
      "Ġzuhause": 7955,
      "Ġalien": 7956,
      "verbra": 7957,
      "uche": 7958,
      "Ġaufgew": 7959,
      "Ġheav": 7960,
      "ulated": 7961,
      "Ġworried": 7962,
      "Ġfresh": 7963,
      "zeiten": 7964,
      "Ã¤nglich": 7965,
      "Ġshapes": 7966,
      "Ġvorteil": 7967,
      "Ġmush": 7968,
      "Ġmusst": 7969,
      "Ġgeschle": 7970,
      "Ġkomm": 7971,
      "Ġblow": 7972,
      "Ġfluss": 7973,
      "Ġraised": 7974,
      "Ġphant": 7975,
      "Ġwood": 7976,
      "ĠgerÃ¤us": 7977,
      "fluss": 7978,
      "Ġbull": 7979,
      "Ġgewisser": 7980,
      "Ġdisor": 7981,
      "Ġemiss": 7982,
      "ĠgehÃ¶r": 7983,
      "Ġschwester": 7984,
      "Ġfinish": 7985,
      "ighten": 7986,
      "Ġbio": 7987,
      "ĠerzÃ¤hle": 7988,
      "Ġcrimin": 7989,
      "ĠgrÃ¶ÃŁeren": 7990,
      "Ġ2005": 7991,
      "Ġ2007": 7992,
      "Ġtedtalk": 7993,
      "Ġexplore": 7994,
      "Ġopin": 7995,
      "Ġsubst": 7996,
      "Ġpolitischen": 7997,
      "Ġgarten": 7998,
      "Ġprograms": 7999,
      "Ġplanets": 8000,
      "Ġcolors": 8001,
      "tempt": 8002,
      "Ġfantas": 8003,
      "Ġchemical": 8004,
      "ĠnÃ¤he": 8005,
      "fragen": 8006,
      "Ġscheinen": 8007,
      "Ġinstitute": 8008,
      "Ġbrauchten": 8009,
      "Ġprofession": 8010,
      "spielen": 8011,
      "Ġbemerkt": 8012,
      "zero": 8013,
      "Ġwheel": 8014,
      "Ġreichen": 8015,
      "Ġstatistiken": 8016,
      "ĠunterstÃ¼tzung": 8017,
      "Ġmarkets": 8018,
      "Ġresponsible": 8019,
      "ĠerklÃ¤rung": 8020,
      "Ġfundament": 8021,
      "Ġkerl": 8022,
      "Ġfailure": 8023,
      "Ġlustig": 8024,
      "Ġentwickelten": 8025,
      "Ġprinciple": 8026,
      "Ġorgans": 8027,
      "ĠverstÃ¤ndnis": 8028,
      "Ġempty": 8029,
      "ĠÃ¼berrascht": 8030,
      "bank": 8031,
      "burg": 8032,
      "cles": 8033,
      "dre": 8034,
      "down": 8035,
      "fig": 8036,
      "gir": 8037,
      "lÃ¤ss": 8038,
      "ring": 8039,
      "sj": 8040,
      "ses": 8041,
      "vere": 8042,
      "vest": 8043,
      "zil": 8044,
      "Ġq": 8045,
      "enken": 8046,
      "iner": 8047,
      "chron": 8048,
      "Ġapr": 8049,
      "Ġdienst": 8050,
      "Ġmam": 8051,
      "Ġbay": 8052,
      "stu": 8053,
      "stag": 8054,
      "osis": 8055,
      "orrow": 8056,
      "ĠkÃ¶": 8057,
      "Ġven": 8058,
      "irt": 8059,
      "Ġlibr": 8060,
      "Ġwearing": 8061,
      "umin": 8062,
      "Ġstone": 8063,
      "Ġverkehr": 8064,
      "Ġunfortunately": 8065,
      "Ġsogen": 8066,
      "ĠschlieÃŁ": 8067,
      "Ġmeas": 8068,
      "Ġsparen": 8069,
      "Ġchart": 8070,
      "erson": 8071,
      "Ġumgehen": 8072,
      "Ġdeswegen": 8073,
      "Ġconcent": 8074,
      "Ġmax": 8075,
      "Ġkontakt": 8076,
      "wieder": 8077,
      "Ġpoet": 8078,
      "Ġperspektive": 8079,
      "Ġverbr": 8080,
      "Ġdamen": 8081,
      "Ġhumor": 8082,
      "Ġwiederum": 8083,
      "Ġhelden": 8084,
      "Ġbits": 8085,
      "Ġschlagen": 8086,
      "Ġtransition": 8087,
      "Ġinteressanter": 8088,
      "Ġ2006": 8089,
      "Ġerster": 8090,
      "Ġ700": 8091,
      "version": 8092,
      "Ġcorner": 8093,
      "Ġdiam": 8094,
      "Ġnavig": 8095,
      "Ġgestalten": 8096,
      "Ġaugenblick": 8097,
      "Ġhilfs": 8098,
      "Ġreligi": 8099,
      "Ġgesellschaften": 8100,
      "Ġentirely": 8101,
      "Ġbetrifft": 8102,
      "point": 8103,
      "Ġwandel": 8104,
      "Ġbehandelt": 8105,
      "fÃ¤lle": 8106,
      "Ġwinz": 8107,
      "Ġacceler": 8108,
      "Ġsurprised": 8109,
      "ĠfrÃ¼hen": 8110,
      "jÃ¤hrigen": 8111,
      "Ġzeichen": 8112,
      "Ġerwartet": 8113,
      "Ġhunger": 8114,
      "Ġdurchschnittliche": 8115,
      "Ġhonor": 8116,
      "Ġfaszinierend": 8117,
      "Ġerwachsenen": 8118,
      "Ġfabrik": 8119,
      "wohner": 8120,
      "Ġbaseball": 8121,
      "Ġexperiences": 8122,
      "ĠzunÃ¤chst": 8123,
      "Ġsharks": 8124,
      "Ġdahin": 8125,
      "Ġintuition": 8126,
      "Ġdiversity": 8127,
      "Ġklimawandel": 8128,
      "Ġjahrhunderts": 8129,
      "Ġalex": 8130,
      "nobody": 8131,
      "Ġcoffee": 8132,
      "Ġyesterday": 8133,
      "aim": 8134,
      "bm": 8135,
      "could": 8136,
      "house": 8137,
      "kat": 8138,
      "mi": 8139,
      "mat": 8140,
      "mil": 8141,
      "sl": 8142,
      "uk": 8143,
      "uz": 8144,
      "uel": 8145,
      "Ġsister": 8146,
      "unte": 8147,
      "asten": 8148,
      "Ġgun": 8149,
      "stab": 8150,
      "sters": 8151,
      "reifen": 8152,
      "itions": 8153,
      "Ġfan": 8154,
      "Ġpfle": 8155,
      "leider": 8156,
      "oul": 8157,
      "Ġku": 8158,
      "Ġlass": 8159,
      "Ġzauber": 8160,
      "Ã¤hn": 8161,
      "enty": 8162,
      "raham": 8163,
      "Ã¶ÃŁen": 8164,
      "ume": 8165,
      "Ġstuck": 8166,
      "Ġstift": 8167,
      "einen": 8168,
      "Ġunlike": 8169,
      "gency": 8170,
      "schre": 8171,
      "Ġergibt": 8172,
      "Ġschaden": 8173,
      "ĠschÃ¤tzen": 8174,
      "Ġleider": 8175,
      "Ġmeilen": 8176,
      "Ġimplic": 8177,
      "theit": 8178,
      "Ġchurch": 8179,
      "Ã¶nt": 8180,
      "Ġexerc": 8181,
      "Ġausgest": 8182,
      "Ġaspekt": 8183,
      "ikan": 8184,
      "hlung": 8185,
      "Ġwillst": 8186,
      "Ġfragt": 8187,
      "Ġflat": 8188,
      "Ġbesor": 8189,
      "Ġbesche": 8190,
      "Ġphones": 8191,
      "Ġdry": 8192,
      "Ġbett": 8193,
      "conne": 8194,
      "ĠgerÃ¤te": 8195,
      "gerÃ¤t": 8196,
      "Ġbackground": 8197,
      "Ġhost": 8198,
      "Ġ1950": 8199,
      "bares": 8200,
      "Ġacade": 8201,
      "Ġgehabt": 8202,
      "Ġpolize": 8203,
      "Ġminister": 8204,
      "Ġhalbe": 8205,
      "Ġcounter": 8206,
      "Ġentweder": 8207,
      "Ġantar": 8208,
      "Ġoffic": 8209,
      "Ġspieler": 8210,
      "Ġautor": 8211,
      "Ġwichtigsten": 8212,
      "othing": 8213,
      "Ġgrade": 8214,
      "Ġfilter": 8215,
      "Ġcharge": 8216,
      "Ġruns": 8217,
      "Ġ800": 8218,
      "Ġbringing": 8219,
      "setzung": 8220,
      "ĠkÃ¶rpers": 8221,
      "Ġkarriere": 8222,
      "Ġhintergrund": 8223,
      "Ġholen": 8224,
      "Ġsucceed": 8225,
      "Ġgesundheitsw": 8226,
      "Ġuniversums": 8227,
      "Ġedge": 8228,
      "Ġsowas": 8229,
      "Ġaccident": 8230,
      "Ġsurprise": 8231,
      "Ġdadurch": 8232,
      "Ġessential": 8233,
      "ĠelektrizitÃ¤t": 8234,
      "Ġfighting": 8235,
      "Ġslowly": 8236,
      "Ġbritish": 8237,
      "Ġerscheint": 8238,
      "Ġnecessary": 8239,
      "Ġbenefit": 8240,
      "Ġlux": 8241,
      "sequenzen": 8242,
      "Ġvacc": 8243,
      "Ġgewebe": 8244,
      "Ġtexas": 8245,
      "ĠerwÃ¤hnt": 8246,
      "Ġmeistens": 8247,
      "Ġbezahlt": 8248,
      "Ġconstantly": 8249,
      "ollywood": 8250,
      "Ġbeantworten": 8251,
      "aa": 8252,
      "bie": 8253,
      "care": 8254,
      "fÃ¤higkeit": 8255,
      "gree": 8256,
      "gabe": 8257,
      "hall": 8258,
      "kÃ¼nft": 8259,
      "mitt": 8260,
      "oben": 8261,
      "paul": 8262,
      "rig": 8263,
      "raten": 8264,
      "sagen": 8265,
      "uar": 8266,
      "ws": 8267,
      "erungen": 8268,
      "atoren": 8269,
      "Ġew": 8270,
      "ision": 8271,
      "isierte": 8272,
      "Ġinfect": 8273,
      "Ġvote": 8274,
      "irds": 8275,
      "Ġlady": 8276,
      "Ġlager": 8277,
      "Ġbezug": 8278,
      "ĠzÃ¤hlen": 8279,
      "Ġweather": 8280,
      "Ġsequen": 8281,
      "Ġjum": 8282,
      "emen": 8283,
      "weiÃŁ": 8284,
      "ĠzuhÃ¶ren": 8285,
      "ĠzukÃ¼nft": 8286,
      "imp": 8287,
      "ays": 8288,
      "Ġschimpan": 8289,
      "Ġlektion": 8290,
      "Ġledig": 8291,
      "ktoren": 8292,
      "Ġausz": 8293,
      "Ġgestern": 8294,
      "ĠÃ¼bertragen": 8295,
      "Ã¤nden": 8296,
      "ĠtrÃ¤gt": 8297,
      "Ġdeter": 8298,
      "ĠsaÃŁ": 8299,
      "Ġplus": 8300,
      "Ġherren": 8301,
      "ĠgetÃ¶tet": 8302,
      "Ġenter": 8303,
      "Ġseele": 8304,
      "Ġbrother": 8305,
      "Ã¼cklicherweise": 8306,
      "Ġhasn": 8307,
      "Ġray": 8308,
      "Ġstarten": 8309,
      "itionen": 8310,
      "Ġdamage": 8311,
      "Ġanderem": 8312,
      "ordnung": 8313,
      "Ġdesigning": 8314,
      "Ġirre": 8315,
      "Ġsurround": 8316,
      "Ġrelated": 8317,
      "dabei": 8318,
      "Ġcrime": 8319,
      "Ġlake": 8320,
      "ĠheiÃŁen": 8321,
      "Ġlebensmittel": 8322,
      "Ġopened": 8323,
      "Ġfash": 8324,
      "plicity": 8325,
      "Ġuniversal": 8326,
      "Ġeinsatz": 8327,
      "frauen": 8328,
      "Ġdigit": 8329,
      "Ġidentity": 8330,
      "Ġkorallen": 8331,
      "Ġadvant": 8332,
      "Ġkommunizieren": 8333,
      "Ġgesetze": 8334,
      "Ġjugend": 8335,
      "Ġdescribe": 8336,
      "karte": 8337,
      "Ġtomorrow": 8338,
      "Ġsweet": 8339,
      "Ġecosystem": 8340,
      "fÃ¼hrung": 8341,
      "Ġbenefits": 8342,
      "Ġatmosphere": 8343,
      "ĠÃ¼berraschend": 8344,
      "Ġleadership": 8345,
      "Ġvermutlich": 8346,
      "fÃ¶rm": 8347,
      "Ġwahrnehmung": 8348,
      "Ġparallel": 8349,
      "Ġhusband": 8350,
      "Ġapril": 8351,
      "cel": 8352,
      "ees": 8353,
      "ete": 8354,
      "ii": 8355,
      "lines": 8356,
      "pted": 8357,
      "rt": 8358,
      "six": 8359,
      "ties": 8360,
      "Ġtank": 8361,
      "Ġdicht": 8362,
      "Ġmaps": 8363,
      "Ġmama": 8364,
      "unk": 8365,
      "ĠhÃ¤user": 8366,
      "stÃ¤nde": 8367,
      "Ġcric": 8368,
      "teid": 8369,
      "Ġlachen": 8370,
      "Ġtodes": 8371,
      "Ġzo": 8372,
      "Ã¤u": 8373,
      "rooms": 8374,
      "ician": 8375,
      "Ġstoff": 8376,
      "Ġunderg": 8377,
      "Ġsoph": 8378,
      "Ġrit": 8379,
      "dert": 8380,
      "lyn": 8381,
      "Ġimit": 8382,
      "Ġimplant": 8383,
      "ests": 8384,
      "Ġmitten": 8385,
      "Ġspiegel": 8386,
      "Ġausdr": 8387,
      "Ġliqu": 8388,
      "Ġcompl": 8389,
      "Ġtrip": 8390,
      "Ġdesp": 8391,
      "Ġconvent": 8392,
      "Ġgetr": 8393,
      "Ġprize": 8394,
      "itete": 8395,
      "Ġgrown": 8396,
      "Ġwilling": 8397,
      "Ġsteigt": 8398,
      "ologists": 8399,
      "udes": 8400,
      "Ġflies": 8401,
      "half": 8402,
      "Ġeinfaches": 8403,
      "Ġscen": 8404,
      "print": 8405,
      "Ġfoie": 8406,
      "flug": 8407,
      "Ġresource": 8408,
      "Ġgewisse": 8409,
      "Ġverbracht": 8410,
      "ĠverblÃ¼": 8411,
      "Ġaccom": 8412,
      "Ġeleph": 8413,
      "Ġelements": 8414,
      "Ġgehirne": 8415,
      "Ġsolid": 8416,
      "Ġpolice": 8417,
      "Ġdesigns": 8418,
      "Ġpair": 8419,
      "Ġkrimin": 8420,
      "Ġshouldn": 8421,
      "Ġ2001": 8422,
      "maÃŁ": 8423,
      "Ġgenerations": 8424,
      "Ġcontact": 8425,
      "losen": 8426,
      "Ġjemandem": 8427,
      "Ġbedingungen": 8428,
      "Ġcoral": 8429,
      "Ġpublished": 8430,
      "comput": 8431,
      "Ġsignals": 8432,
      "Ġbroke": 8433,
      "Ġschwieriger": 8434,
      "preci": 8435,
      "Ġholes": 8436,
      "Ġerinnert": 8437,
      "Ġriesigen": 8438,
      "fordert": 8439,
      "zusehen": 8440,
      "Ġverhaltens": 8441,
      "Ġillustr": 8442,
      "Ġdiseases": 8443,
      "Ġarbeiteten": 8444,
      "Ġschwarze": 8445,
      "roskop": 8446,
      "Ġstellten": 8447,
      "Ġcommunicate": 8448,
      "Ġgrenze": 8449,
      "Ġprotection": 8450,
      "Ġdynamic": 8451,
      "Ġerwachsene": 8452,
      "danach": 8453,
      "Ġschrecklich": 8454,
      "Ġnutr": 8455,
      "Ġiraq": 8456,
      "Ġnervous": 8457,
      "Ġefficiency": 8458,
      "ĠkÃ¼mmern": 8459,
      "Ġdinosaurier": 8460,
      "Ġmicrosoft": 8461,
      "Ġdocument": 8462,
      "Ġempathy": 8463,
      "Ġelectrical": 8464,
      "ĠberÃ¼hm": 8465,
      "Ġautomob": 8466,
      "Ġnewspaper": 8467,
      "Ġtissue": 8468,
      "through": 8469,
      "ĠgefÃ¤llt": 8470,
      "Ġdolph": 8471,
      "Ġdiabetes": 8472,
      "Ġantibiot": 8473,
      "Ġlediglich": 8474,
      "Ġfashion": 8475,
      "80": 8476,
      "bitte": 8477,
      "dis": 8478,
      "drei": 8479,
      "daten": 8480,
      "gyp": 8481,
      "hÃ¶": 8482,
      "mber": 8483,
      "wide": 8484,
      "inary": 8485,
      "china": 8486,
      "ĠwÃ¤hl": 8487,
      "Ġbaut": 8488,
      "Ġbibl": 8489,
      "Ġgle": 8490,
      "Ġechten": 8491,
      "itik": 8492,
      "ĠnÃ¶t": 8493,
      "Ġnutzt": 8494,
      "osc": 8495,
      "Ġpy": 8496,
      "Ġintens": 8497,
      "Ġcorn": 8498,
      "Ġloss": 8499,
      "Ġlernt": 8500,
      "Ġzog": 8501,
      "Ġwear": 8502,
      "icon": 8503,
      "icious": 8504,
      "Ġstammt": 8505,
      "Ġderzeit": 8506,
      "Ġrefer": 8507,
      "Ġrechn": 8508,
      "Ġunus": 8509,
      "being": 8510,
      "Ġschien": 8511,
      "Ġrie": 8512,
      "Ġalph": 8513,
      "Ġleon": 8514,
      "Ġlehren": 8515,
      "elben": 8516,
      "vermÃ¶gen": 8517,
      "Ġmeters": 8518,
      "Ġwars": 8519,
      "Ġaufzu": 8520,
      "ifth": 8521,
      "ifying": 8522,
      "theorie": 8523,
      "ischt": 8524,
      "Ġmoves": 8525,
      "Ġmanaged": 8526,
      "Ġauseinander": 8527,
      "Ġnove": 8528,
      "Ġwerte": 8529,
      "ĠÃ¼berprÃ¼": 8530,
      "Ġteuf": 8531,
      "Ġconserv": 8532,
      "Ġvorbe": 8533,
      "place": 8534,
      "ologische": 8535,
      "Ġroof": 8536,
      "Ġperception": 8537,
      "Ġbesondere": 8538,
      "Ġbrazil": 8539,
      "Ġagre": 8540,
      "acle": 8541,
      "Ġboom": 8542,
      "Ġobser": 8543,
      "Ġobama": 8544,
      "Ġobjekte": 8545,
      "ĠgerÃ¤usch": 8546,
      "Ġ36": 8547,
      "Ġhinweg": 8548,
      "Ġverbringen": 8549,
      "Ġdisplay": 8550,
      "ungssystem": 8551,
      "Ġadvert": 8552,
      "Ġappreci": 8553,
      "ĠgehÃ¶ren": 8554,
      "Ġteilchen": 8555,
      "Ġpolar": 8556,
      "Ġstudying": 8557,
      "Ġherausgefunden": 8558,
      "Ġziele": 8559,
      "Ġbildschirm": 8560,
      "Ġregular": 8561,
      "Ġorganizations": 8562,
      "Ġbeweise": 8563,
      "Ġvideosp": 8564,
      "Ġtreib": 8565,
      "ĠbeschrÃ¤n": 8566,
      "Ġhelping": 8567,
      "Ġjoin": 8568,
      "Ġdrag": 8569,
      "imming": 8570,
      "Ġcorpor": 8571,
      "Ġjeff": 8572,
      "Ġ120": 8573,
      "unternehmen": 8574,
      "Ġtempor": 8575,
      "Ġwahrscheinlichkeit": 8576,
      "Ġchemistry": 8577,
      "Ġfully": 8578,
      "Ġallerdings": 8579,
      "Ġorganisationen": 8580,
      "Ġdeliver": 8581,
      "Ġjohnson": 8582,
      "Ġfields": 8583,
      "ĠstÃ¤dten": 8584,
      "Ġperfekte": 8585,
      "Ġzentrum": 8586,
      "Ġseriously": 8587,
      "stattdessen": 8588,
      "Ġkatastrop": 8589,
      "Ġhiggs": 8590,
      "ĠzerstÃ¶rt": 8591,
      "Ġregener": 8592,
      "Ġverantwortlich": 8593,
      "Ġrepresents": 8594,
      "Ġtiefe": 8595,
      "Ġintelligenz": 8596,
      "Ġdeutsch": 8597,
      "Ġkontrollieren": 8598,
      "Ġegypt": 8599,
      "Ġsequence": 8600,
      "Ġkalifornien": 8601,
      "Ġintroduce": 8602,
      "Ġseparate": 8603,
      "Ġplatform": 8604,
      "Ġqueen": 8605,
      "ĠlÃ¤cheln": 8606,
      "Ġkorea": 8607,
      "modell": 8608,
      "bÃ¼cher": 8609,
      "Ġliked": 8610,
      "Ġmembers": 8611,
      "Ġpuzzle": 8612,
      "Ġkonflikt": 8613,
      "ĠschÃ¶nen": 8614,
      "Ġhidden": 8615,
      "Ġindependent": 8616,
      "Ġmittl": 8617,
      "Ġastronom": 8618,
      "foot": 8619,
      "ĠdurchgefÃ¼hrt": 8620,
      "Ġdokument": 8621,
      "Ġmexico": 8622,
      "Ġgrandmother": 8623,
      "ĠhauptsÃ¤chlich": 8624,
      "children": 8625,
      "certain": 8626,
      "fÃ¼nf": 8627,
      "jh": 8628,
      "lÃ¶s": 8629,
      "sah": 8630,
      "wing": 8631,
      "erk": 8632,
      "Ġtip": 8633,
      "Ġtenden": 8634,
      "Ġaer": 8635,
      "Ġsnow": 8636,
      "Ġdot": 8637,
      "Ġdum": 8638,
      "Ġthomas": 8639,
      "estern": 8640,
      "aters": 8641,
      "Ġgap": 8642,
      "Ġgam": 8643,
      "Ġgather": 8644,
      "Ġearn": 8645,
      "itness": 8646,
      "Ġnations": 8647,
      "Ġoct": 8648,
      "Ġpasst": 8649,
      "Ġing": 8650,
      "Ġcult": 8651,
      "Ġvit": 8652,
      "Ġvibr": 8653,
      "Ġanno": 8654,
      "Ġanteil": 8655,
      "aling": 8656,
      "omos": 8657,
      "ĠzÃ¤h": 8658,
      "Ġzelle": 8659,
      "eregt": 8660,
      "icated": 8661,
      "Ġstern": 8662,
      "Ġunion": 8663,
      "Ġruf": 8664,
      "Ġdieselbe": 8665,
      "Ġabraham": 8666,
      "Ġaufgrund": 8667,
      "ifer": 8668,
      "iften": 8669,
      "Ġmittag": 8670,
      "Ġexpression": 8671,
      "Ġausgeb": 8672,
      "Ġwerbung": 8673,
      "iking": 8674,
      "ikaner": 8675,
      "Ġteeth": 8676,
      "Ġenem": 8677,
      "Ġdegree": 8678,
      "Ġmachst": 8679,
      "Ġvorhand": 8680,
      "Ġjustice": 8681,
      "Ġhergestellt": 8682,
      "ĠdaÃŁ": 8683,
      "Ġdavor": 8684,
      "izer": 8685,
      "Ġwilliam": 8686,
      "Ġsteigen": 8687,
      "Ġround": 8688,
      "Ġkonferenz": 8689,
      "endes": 8690,
      "Ġzweif": 8691,
      "Ġaging": 8692,
      "ĠgroÃŁmutter": 8693,
      "Ġscan": 8694,
      "Ġpartn": 8695,
      "Ġstarke": 8696,
      "Ġhandy": 8697,
      "Ġtalks": 8698,
      "Ġwellen": 8699,
      "projekt": 8700,
      "Ġadvent": 8701,
      "Ġadmin": 8702,
      "Ġembra": 8703,
      "ĠselbstverstÃ¤ndlich": 8704,
      "Ġjazz": 8705,
      "Ġpoly": 8706,
      "Ġsimplicity": 8707,
      "Ġminim": 8708,
      "hai": 8709,
      "ĠkrÃ¤fte": 8710,
      "iox": 8711,
      "Ġgrab": 8712,
      "Ġverlangen": 8713,
      "Ġinvited": 8714,
      "ĠgelÃ¶st": 8715,
      "Ġverstehe": 8716,
      "Ġschlechten": 8717,
      "ocol": 8718,
      "Ġirgendjemand": 8719,
      "Ġpossibilities": 8720,
      "Ġangesehen": 8721,
      "Ġbarr": 8722,
      "Ġcheap": 8723,
      "Ġnormalen": 8724,
      "Ġpsychopath": 8725,
      "interess": 8726,
      "Ġmeme": 8727,
      "zufÃ¼gen": 8728,
      "Ġorganismen": 8729,
      "nichts": 8730,
      "Ġempower": 8731,
      "Ġsauber": 8732,
      "Ġlimited": 8733,
      "Ġgesichter": 8734,
      "Ġconsumption": 8735,
      "Ġdreams": 8736,
      "ĠaktivitÃ¤t": 8737,
      "Ġverhindern": 8738,
      "Ġcovered": 8739,
      "coln": 8740,
      "Ġtarget": 8741,
      "Ġspannen": 8742,
      "Ġaussage": 8743,
      "Ġinnere": 8744,
      "Ġprototy": 8745,
      "Ġgekauft": 8746,
      "ĠÃ¶kosystem": 8747,
      "Ġneighborhood": 8748,
      "Ġameisen": 8749,
      "zunÃ¤chst": 8750,
      "Ġtraffic": 8751,
      "ĠverÃ¶ffentlicht": 8752,
      "Ġquasi": 8753,
      "Ġunusual": 8754,
      "ader": 8755,
      "dad": 8756,
      "eg": 8757,
      "four": 8758,
      "het": 8759,
      "mie": 8760,
      "rom": 8761,
      "ini": 8762,
      "Ġtrop": 8763,
      "change": 8764,
      "Ġsar": 8765,
      "Ġsatz": 8766,
      "Ġwave": 8767,
      "Ġwald": 8768,
      "Ġmouse": 8769,
      "unfortunately": 8770,
      "Ġhill": 8771,
      "Ġbrow": 8772,
      "Ġbattle": 8773,
      "ĠgÃ¤": 8774,
      "Ġgay": 8775,
      "Ġtheoret": 8776,
      "Ġpum": 8777,
      "Ġpandem": 8778,
      "aped": 8779,
      "isa": 8780,
      "inger": 8781,
      "teuer": 8782,
      "Ġannehmen": 8783,
      "Ġeiniger": 8784,
      "Ġlangen": 8785,
      "Ġtoward": 8786,
      "quit": 8787,
      "Ġweile": 8788,
      "Ġdiet": 8789,
      "Ġsec": 8790,
      "bern": 8791,
      "Ġrechen": 8792,
      "Ġunend": 8793,
      "Ġsobald": 8794,
      "Ġersetzen": 8795,
      "beim": 8796,
      "elf": 8797,
      "Ġdop": 8798,
      "Ġabzu": 8799,
      "Ġabsicht": 8800,
      "Ġabschluss": 8801,
      "Ġaufnahme": 8802,
      "ibung": 8803,
      "Ġausr": 8804,
      "Ġatoms": 8805,
      "Ġattempt": 8806,
      "Ġshut": 8807,
      "Ġtrill": 8808,
      "Ġdeser": 8809,
      "Ġload": 8810,
      "ffer": 8811,
      "Ġentertain": 8812,
      "ĠbrÃ¼": 8813,
      "Ã¶rper": 8814,
      "Ġperman": 8815,
      "Ġfaith": 8816,
      "Ġgotten": 8817,
      "Ġdran": 8818,
      "Ġpounds": 8819,
      "inning": 8820,
      "flÃ¤chen": 8821,
      "Ġdisaster": 8822,
      "Ġhohen": 8823,
      "Ġsimulation": 8824,
      "Ġerfinden": 8825,
      "Ġfrequen": 8826,
      "Ġgefallen": 8827,
      "Ġfactor": 8828,
      "Ġbeweis": 8829,
      "Ġslums": 8830,
      "Ġ2009": 8831,
      "Ġgenerationen": 8832,
      "Ġbelief": 8833,
      "Ġproto": 8834,
      "Ġuh": 8835,
      "Ġhelps": 8836,
      "Ġdrauf": 8837,
      "Ġfilms": 8838,
      "Ġcarefully": 8839,
      "richtung": 8840,
      "something": 8841,
      "Ġoperating": 8842,
      "ĠflieÃŁ": 8843,
      "cript": 8844,
      "Ġwesentlich": 8845,
      "Ġemotionen": 8846,
      "Ġdancing": 8847,
      "Ġlincoln": 8848,
      "ĠhÃ¤nden": 8849,
      "Ġsynchron": 8850,
      "Ġwirtschaftliche": 8851,
      "estens": 8852,
      "Ġwalls": 8853,
      "Ġdeeply": 8854,
      "Ġgalaxy": 8855,
      "Ġsoldaten": 8856,
      "ĠÃ¼brig": 8857,
      "kosten": 8858,
      "Ġbeeinflussen": 8859,
      "ĠeuropÃ¤": 8860,
      "Ġcartoon": 8861,
      "Ġkilometers": 8862,
      "Ġmultiple": 8863,
      "ĠwÃ¼nschte": 8864,
      "ĠwÃ¼ste": 8865,
      "Ġdistribution": 8866,
      "Ġinterpretation": 8867,
      "Ġconstruction": 8868,
      "Ġgentlemen": 8869,
      "Ġcomponents": 8870,
      "Ġunterscheiden": 8871,
      "Ġmolecule": 8872,
      "izza": 8873,
      "Ġpenguins": 8874,
      "ĠÃ¶konom": 8875,
      "erinnern": 8876,
      "Ġexplanation": 8877,
      "ĠfranzÃ¶s": 8878,
      "Ġkohlenstoff": 8879,
      "Ġliquid": 8880,
      "100": 8881,
      "cut": 8882,
      "hatt": 8883,
      "jamin": 8884,
      "nic": 8885,
      "ttet": 8886,
      "Ġtes": 8887,
      "Ġtall": 8888,
      "Ġsuit": 8889,
      "Ġdivid": 8890,
      "anze": 8891,
      "Ġmartin": 8892,
      "atar": 8893,
      "atures": 8894,
      "Ġbug": 8895,
      "stimm": 8896,
      "Ġpor": 8897,
      "Ġpill": 8898,
      "Ġpure": 8899,
      "Ġpurs": 8900,
      "orfen": 8901,
      "Ġcup": 8902,
      "Ġkaffe": 8903,
      "Ġkabel": 8904,
      "tele": 8905,
      "Ġanatom": 8906,
      "Ġlou": 8907,
      "Ġlam": 8908,
      "Ġzell": 8909,
      "Ġwetter": 8910,
      "urm": 8911,
      "Ġseht": 8912,
      "icate": 8913,
      "gegeben": 8914,
      "Ġstup": 8915,
      "Ġunex": 8916,
      "allow": 8917,
      "weich": 8918,
      "wegs": 8919,
      "ette": 8920,
      "Ġabgesch": 8921,
      "Ġgore": 8922,
      "istor": 8923,
      "Ġchain": 8924,
      "ulin": 8925,
      "Ġmanagement": 8926,
      "Ġausbildung": 8927,
      "Ġdee": 8928,
      "Ġdep": 8929,
      "step": 8930,
      "ĠprÃ¼": 8931,
      "Ġbright": 8932,
      "Ġfeature": 8933,
      "hnte": 8934,
      "Ġeveryday": 8935,
      "Ġrake": 8936,
      "Ġcompar": 8937,
      "Ġeinfachheit": 8938,
      "Ġwoher": 8939,
      "lieben": 8940,
      "steller": 8941,
      "Ġverbindungen": 8942,
      "prob": 8943,
      "Ġelef": 8944,
      "Ġsolved": 8945,
      "Ġsolcher": 8946,
      "Ġentworfen": 8947,
      "Ġinsight": 8948,
      "gebracht": 8949,
      "jekten": 8950,
      "klus": 8951,
      "Ġorganized": 8952,
      "Ġgegenseit": 8953,
      "Ġcrash": 8954,
      "lands": 8955,
      "Ġbeschreiben": 8956,
      "Ġdreh": 8957,
      "Ġgedicht": 8958,
      "Ġlosing": 8959,
      "Ġoptions": 8960,
      "Ġverkn": 8961,
      "Ġpotenz": 8962,
      "Ġequal": 8963,
      "Ġequivalent": 8964,
      "Ġinvestieren": 8965,
      "ĠlÃ¶cher": 8966,
      "Ġcontinent": 8967,
      "Ġtaste": 8968,
      "Ġvolunte": 8969,
      "Ġappropr": 8970,
      "Ġsandwich": 8971,
      "Ġkomplexe": 8972,
      "ĠÃ¼berrasch": 8973,
      "Ġdunkle": 8974,
      "Ã¤chtnis": 8975,
      "ĠfÃ¼hrung": 8976,
      "Ġclosed": 8977,
      "Ġmorgens": 8978,
      "Ġunbelie": 8979,
      "Ġerlebt": 8980,
      "Ġtalent": 8981,
      "Ġeuropean": 8982,
      "ĠbevÃ¶lkerungs": 8983,
      "Ġsymmetr": 8984,
      "Ġdepends": 8985,
      "Ġarrived": 8986,
      "Ġgalaxies": 8987,
      "Ġerscheinen": 8988,
      "ĠmÃ¤nnern": 8989,
      "burgh": 8990,
      "Ġakzeptieren": 8991,
      "Ġwireless": 8992,
      "nummer": 8993,
      "build": 8994,
      "normal": 8995,
      "ĠkÃ¼rzlich": 8996,
      "erzÃ¤hl": 8997,
      "wissenschaftler": 8998,
      "Ġentrepreneur": 8999,
      "Ġincluding": 9000,
      "ĠberÃ¼hrt": 9001,
      "Ġmortality": 9002,
      "sprache": 9003,
      "Ġdescribed": 9004,
      "Ġforgot": 9005,
      "remember": 9006,
      "Ġkitchen": 9007,
      "Ġstanford": 9008,
      "Ġexercise": 9009,
      "Ġcricket": 9010,
      "15": 9011,
      "baut": 9012,
      "kÃ¶": 9013,
      "kungen": 9014,
      "mart": 9015,
      "mord": 9016,
      "nes": 9017,
      "oÃŁen": 9018,
      "power": 9019,
      "ress": 9020,
      "zed": 9021,
      "ĠtÃ¤t": 9022,
      "Ġweder": 9023,
      "Ġicon": 9024,
      "ĠmÃ¼tter": 9025,
      "ĠgÃ¼": 9026,
      "stimmen": 9027,
      "Ġfische": 9028,
      "Ġnic": 9029,
      "Ġohren": 9030,
      "Ġcognitive": 9031,
      "Ġvot": 9032,
      "Ġlic": 9033,
      "Ã¼ge": 9034,
      "Ġbee": 9035,
      "roll": 9036,
      "icals": 9037,
      "Ġitalien": 9038,
      "Ġjur": 9039,
      "Ġrepor": 9040,
      "Ġungleich": 9041,
      "gence": 9042,
      "Ġerstellen": 9043,
      "Ġerled": 9044,
      "beg": 9045,
      "Ġlebte": 9046,
      "sens": 9047,
      "hek": 9048,
      "illed": 9049,
      "Ġnotion": 9050,
      "ĠfÃ¼rs": 9051,
      "Ġuser": 9052,
      "Ġsaved": 9053,
      "Ġplanning": 9054,
      "Ġhierher": 9055,
      "Ġentfer": 9056,
      "Ġentwerfen": 9057,
      "Ġ26": 9058,
      "Ġtheme": 9059,
      "Ġthinks": 9060,
      "Ġcore": 9061,
      "please": 9062,
      "ĠqualitÃ¤t": 9063,
      "Ġbran": 9064,
      "Ġroh": 9065,
      "Ġkonkur": 9066,
      "Ġkonsequenzen": 9067,
      "Ġbesitz": 9068,
      "aked": 9069,
      "halte": 9070,
      "Ġjahrzehn": 9071,
      "werte": 9072,
      "Ġvielmals": 9073,
      "Ġweltraum": 9074,
      "Ġrace": 9075,
      "Ġobserv": 9076,
      "Ġ32": 9077,
      "ĠmÃ¼sste": 9078,
      "Ġspeech": 9079,
      "Ġembar": 9080,
      "ĠfÃ¼hrer": 9081,
      "Ġzusch": 9082,
      "Ġcarol": 9083,
      "Ġschweden": 9084,
      "Ġgefahr": 9085,
      "Ġputs": 9086,
      "Ġzieht": 9087,
      "Ġkrise": 9088,
      "Ġears": 9089,
      "Ġkochen": 9090,
      "wagen": 9091,
      "Ġremote": 9092,
      "ĠÃ¤gyp": 9093,
      "blog": 9094,
      "Ġdraht": 9095,
      "Ġfolgt": 9096,
      "gewalt": 9097,
      "Ġviertel": 9098,
      "Ġschlechter": 9099,
      "Ġexped": 9100,
      "Ġfalten": 9101,
      "ĠhÃ¶re": 9102,
      "Ã¤ngst": 9103,
      "Ġheads": 9104,
      "Ġnaja": 9105,
      "Ġphotos": 9106,
      "apped": 9107,
      "everyone": 9108,
      "Ġdistance": 9109,
      "Ġseitdem": 9110,
      "Ġneuron": 9111,
      "systeme": 9112,
      "Ġreligions": 9113,
      "Ġchemie": 9114,
      "schrÃ¤n": 9115,
      "Ġlinien": 9116,
      "Ġintellect": 9117,
      "Ġdauern": 9118,
      "Ġargue": 9119,
      "Ġintim": 9120,
      "ĠidentitÃ¤t": 9121,
      "ahnsinn": 9122,
      "Ġtreated": 9123,
      "Ġinstitutions": 9124,
      "Ġfigured": 9125,
      "Ġsilicon": 9126,
      "Ġspring": 9127,
      "mÃ¶glichkeiten": 9128,
      "damals": 9129,
      "Ġaston": 9130,
      "grad": 9131,
      "jÃ¤hriger": 9132,
      "Ġnorthern": 9133,
      "ĠpersÃ¶nliche": 9134,
      "Ġdrawing": 9135,
      "Ġmajority": 9136,
      "Ġtaliban": 9137,
      "Ġlaser": 9138,
      "Ġmoderne": 9139,
      "Ġsymmetry": 9140,
      "chris": 9141,
      "ĠbeschÃ¤ftigt": 9142,
      "Ġskept": 9143,
      "Ġerror": 9144,
      "Ġirak": 9145,
      "Ġintroduced": 9146,
      "ĠgrÃ¼ne": 9147,
      "staat": 9148,
      "Ġenorme": 9149,
      "Ġmuslim": 9150,
      "Ġvielfalt": 9151,
      "Ġentspricht": 9152,
      "girl": 9153,
      "Ġstupid": 9154,
      "Ġentfernen": 9155,
      "fg": 9156,
      "mack": 9157,
      "pra": 9158,
      "rass": 9159,
      "tier": 9160,
      "via": 9161,
      "Ġdots": 9162,
      "Ġeu": 9163,
      "Ġnick": 9164,
      "Ġokt": 9165,
      "isher": 9166,
      "Ġinten": 9167,
      "Ġinhalt": 9168,
      "Ġcous": 9169,
      "Ġanst": 9170,
      "Ġanger": 9171,
      "Ġbehalten": 9172,
      "Ġgehalten": 9173,
      "keys": 9174,
      "iler": 9175,
      "acher": 9176,
      "Ġverab": 9177,
      "Ġverteilt": 9178,
      "Ġverteid": 9179,
      "Ġrecon": 9180,
      "Ġreverse": 9181,
      "schau": 9182,
      "Ġerstellt": 9183,
      "Ġschicks": 9184,
      "Ġschatten": 9185,
      "Ġrural": 9186,
      "ĠrÃ¶nt": 9187,
[...]
